/**
  ******************************************************************************
  * @file    network_data_params.c
  * @author  AST Embedded Analytics Research Platform
  * @date    Mon Feb  6 00:21:53 2023
  * @brief   AI Tool Automatic Code Generator for Embedded NN computing
  ******************************************************************************
  * Copyright (c) 2023 STMicroelectronics.
  * All rights reserved.
  *
  * This software is licensed under terms that can be found in the LICENSE file
  * in the root directory of this software component.
  * If no LICENSE file comes with this software, it is provided AS-IS.
  ******************************************************************************
  */

#include "network_data_params.h"


/**  Activations Section  ****************************************************/
ai_handle g_network_activations_table[1 + 2] = {
  AI_HANDLE_PTR(AI_MAGIC_MARKER),
  AI_HANDLE_PTR(NULL),
  AI_HANDLE_PTR(AI_MAGIC_MARKER),
};




/**  Weights Section  ********************************************************/
AI_ALIGNED(32)
const ai_u64 s_network_weights_array_u64[6038] = {
  0xbd1078f63e43fc59U, 0x3e8ccdd8be6bc4e0U, 0x3e64b49d3e1f3f62U, 0xbe4144cf3cf23c7fU,
  0xbca155a63e8a6a17U, 0xbe61f3aebd2bb289U, 0x3dae59aabede015bU, 0x3e6f425c3c9bfc37U,
  0x3e0ad939be8001bfU, 0xbe0d12f7bec9ed99U, 0xbe9608aebe1aa1eeU, 0xbe54481cbc84146eU,
  0x3e2c9a1ebedb6abdU, 0xbdc4170d3ea6ff68U, 0x3e90082abe47c91aU, 0xbd8af439be2f5a31U,
  0x3df47d473e249828U, 0x3e2e3c32be16c131U, 0xbe73d9ff3ba8b3d9U, 0x3e5923c9bd5f155bU,
  0x3e2369803ecc8772U, 0x3e07308ebea6187aU, 0x3e1aec7bbd326487U, 0x3dc8d315be48ad42U,
  0xbd5dcb193e5a86d4U, 0x3db51a763e0b65a7U, 0x3e8ef61d3e5729ddU, 0x3e9461ff3dcfb9a3U,
  0xbd0d76b93e545f4cU, 0xbddd87563ee3e4ffU, 0x3e3124e03e04ab50U, 0xbe1f7765be3c6ad6U,
  0x3db573f4be783883U, 0xbea726283ecca2acU, 0x3d31d726be0c24efU, 0x3e012d0cbdac16beU,
  0x3eebfc18bee92166U, 0x3e0f4a0f3d7fe5c7U, 0xbe46b03b3d9a912dU, 0x3be751acbe1a1d7cU,
  0xbe0fe4963ecefdb7U, 0x3e4f08b63d3a3f41U, 0xbe9d0587be130cc5U, 0x3eb8de5a3db0c04fU,
  0xbde4d3dbbda1ca03U, 0x3f0aee833e842a90U, 0xbe0660933ea7d711U, 0x3e29df2e3e5acc83U,
  0xbd9c33003da9fa3fU, 0x3e34e7b53dfda2d5U, 0xbdcf1d683d77771fU, 0x3ea4e2ffbf17780dU,
  0x3e233c073d44a13eU, 0x3e8ae3a33af99a96U, 0xbea5f5843ee480e4U, 0x3db6b6b1be952096U,
  0xbde44b93be83292cU, 0x3e5723a03e6b68b6U, 0x3dd07f44be8c044dU, 0xbeb0db97bec088fbU,
  0xbdb12c813e5235f6U, 0xbe97c9debea27eabU, 0xbe83a85fbeb02e9cU, 0x3e05f8c33ea0823aU,
  0x3ece88323dfe6322U, 0xbdecbea8be1037bdU, 0xbe96afbc3c6950ceU, 0xbe370adf3e87e749U,
  0x3e2db4f0bdb2dcc5U, 0x3e92c6343ebfecbbU, 0x3eade3e83da04996U, 0x3ea48a073d5d8b49U,
  0x3e1313cebd5651caU, 0x3b7156b63e57c45fU, 0xbd093f08bd9e026fU, 0x3d9647ee3dbcd11aU,
  0xbceff36e3d32875cU, 0xbdbb47c4bc29fd10U, 0x3ddca6fdbcf2899aU, 0xbe20f6d2bb54788aU,
  0xbd114be2bdedbe44U, 0xbe325110bd901745U, 0x3e99148e3e57069bU, 0xbe851c8a3d2f7f1aU,
  0xbea7ad84befeaf02U, 0xbe26463c3da5ce31U, 0xbc7f0476be2e5018U, 0xbec4aac43f03f86bU,
  0xbd892308beba27bfU, 0xbe5b63c1be118892U, 0x3e917a3dbd57876fU, 0xbe2ea4843c852e1dU,
  0xbe3825c7be09edf1U, 0xbea47a2a3c185b3fU, 0xbc96f5a7bd142e78U, 0xbcbd2e663e8b81aeU,
  0x3d8bcdcfbee1ff7fU, 0x3d8ce8c1bdaf920bU, 0xbdaaa5b83c6154b9U, 0x3ddf2aa4be336a09U,
  0x3dd67b6fbea981deU, 0x3c9754be3d2d3c41U, 0x3e99412ebe879cebU, 0xbecff21c3eb11a79U,
  0x3e93dd2dbf1b1167U, 0xbe794c0abe89ea50U, 0xbe1d33263df185bbU, 0x3dfbe8023e050cd9U,
  0xbd8c6eddbd418fcbU, 0xbe358481beeb3893U, 0xbdefb439be7bb23bU, 0xbd9d858cbea4a876U,
  0xbe8257efbe6b77caU, 0x3e4cae07bdb13cb9U, 0x3e2b6964bda91b33U, 0xbe0dab483c06c931U,
  0x3d15301b3ddf03cfU, 0xbef6d21bbeee2016U, 0xbc9f138bb9f737d4U, 0xbd81f5fbbea84cdeU,
  0x3e0dbc733d1d81c0U, 0xbe29e2833e242554U, 0xbda7f859bd866604U, 0x3e4cf189bb492934U,
  0x3e9a59e33de8c9d1U, 0xbe0d891dbea09667U, 0x3dc6433cbd22b930U, 0x3d155ea4beae9924U,
  0xbe9ba99fbec4d892U, 0xbc1cf0edbe38d30dU, 0x3ced28783c48829bU, 0x3df4b7a0be12de65U,
  0x3e9994c0be0a4b11U, 0x3f1295ba3e9005dbU, 0x3e8d2b41bd84c533U, 0xbe4263933f2e8281U,
  0x3d2062913e5049b9U, 0xbc3709593eb74d52U, 0x3e7186b73d7e1158U, 0x3d9f55d73e0dfbfaU,
  0x3efbdcf5be0ee83bU, 0x3dc50aae3d3d30fbU, 0x3e10088fbc6dd164U, 0x3e2d18b13f5a216bU,
  0x3ec644d5bdb6b989U, 0x3e7b8f963e71c12aU, 0xbe2cef2d3ec24481U, 0xbe326a14be51345eU,
  0xbc98323abe301b11U, 0x3e17a2313eaf2536U, 0xbbca840e3db6486eU, 0x3ca0b0c23f2b8541U,
  0x3e1dd7cb3e9c06edU, 0x3ecf6637bdbe0f10U, 0xbb76be523e3dc5f5U, 0x3e95c778be2e29a1U,
  0x3eae95da3e7f580eU, 0x3f1779543da6e08eU, 0x3dbf4a6bbdf2edccU, 0x3ed441ea3f5320b6U,
  0x3e3cf6603e98d7ecU, 0xbc05b7773eb88a1eU, 0x3e61a36f3e774912U, 0x3e0ffa503d793ca2U,
  0x3f1c8ef7be3de4beU, 0x3f0a9bde3db15567U, 0xbe67d5063e16b8a5U, 0x3f03504b3e813f0aU,
  0x3e0ca574bd81d777U, 0x3d18d2e13de50160U, 0xbe05df023e834ec1U, 0xbe4ab5b53af0e074U,
  0x3e0193bbbe76e9beU, 0xbcec23683e41362cU, 0xbd91007ebd65fd8bU, 0x3e4701d03f220b9aU,
  0x3e40813c3cb27490U, 0xbb899476be11500cU, 0xbebe22d43eed253fU, 0x3cecbc1bbea932b4U,
  0xbd726d1dbe3285eeU, 0xbf1f26d6be3c291aU, 0x3e1958f63e1124c0U, 0xbe56448abea8fc6dU,
  0xbbf63b35bea38b37U, 0xbd099c5bbe538cfeU, 0x3e018180bd370c35U, 0xbdd58ac83d4776c9U,
  0x3d3448813dc90c58U, 0xbf350720bef2f284U, 0x3e2e9c5abd96928fU, 0xbdf1da97be224003U,
  0xbe3f74993df45e7eU, 0xbc27df47bd556c8fU, 0xbe8f526d3e2f6698U, 0x3d3906a03cee0b1dU,
  0xbe0143f3be31bab2U, 0xbeec558cbed11738U, 0x3e1d1554be37b771U, 0xbe93916fbf06de30U,
  0xbe6993f93d814a04U, 0xbe0e1ae73d9a1b39U, 0xbd92edab3e822649U, 0x3e5aac123d012d80U,
  0x3e80799fbe23c58eU, 0x3eea92e63ea5b3ceU, 0xbe8a49803db61928U, 0x3e86c34c3db924f7U,
  0x3ed3230e3eddeb5cU, 0xbe77d9edbe285085U, 0x3e9dcd9a3d938168U, 0xbea4d141be25db95U,
  0x3ebc55e2bdfbad39U, 0x3e8941e03f1fc50dU, 0x3e2fb1023e9a974eU, 0x3edb8e65be265f80U,
  0x3c6275a13d2e81f0U, 0xbe150c263e6ca18eU, 0xbd6b76b93deab5fcU, 0xbd2f053f3e0360c7U,
  0x3e35039a3ed087f2U, 0x3f3170383efadde5U, 0xbda6dc0d3ee94ae7U, 0xbd1f8998bd60e1c2U,
  0x3e411b573e9450b7U, 0x3e536b293e0490b0U, 0x3e65318b3ed7cd47U, 0xbe0d82dabc725c2fU,
  0x3ec6c1293d965032U, 0x3e8a15b73d4fbaadU, 0x3cbca54cbc82fdf7U, 0x3e8bfedc3f3c63efU,
  0x3d8fb0523ef1115bU, 0xbe17d0d23e192614U, 0xbe0b2f2d3e1e1eefU, 0x3e2f8c1e3e7496d3U,
  0x3e8b4fdd3e2bbc99U, 0x3e9af7c03e5f9461U, 0xbe2cee783e755bc0U, 0x3e81dcbe3f23eb87U,
  0x3e65f3a13ea252a3U, 0xbe847acebdf025adU, 0xbd90693b3e333092U, 0x3e2dc83abe1f259dU,
  0x3ea83df3bde35b69U, 0xbe09b81e3f0cb17eU, 0xbd3b00573e93e576U, 0x3ee12d3f3f59551bU,
  0x3eafbaf73e9601beU, 0xbe4b130ebe14cec7U, 0xbd473b743d3243f6U, 0x3d38acf9be4f7a32U,
  0x3ecab72abe247f28U, 0x3edf1f523e9d0da2U, 0xbd092871bddbe567U, 0x3e0154b43e116e63U,
  0x3e38e078bcf45b88U, 0xbcf7d0373e51cea3U, 0x3e727c9d3f0d9e03U, 0xbcb7b2a7be57de34U,
  0x3e5417c03da403e6U, 0x3e65e5263f30280cU, 0xbe8a93aa3c62510eU, 0xbe59dbef3ef578a2U,
  0x3ecfecd1bd073a91U, 0x3eab0198bc043b82U, 0x3da72ef13de0e976U, 0xbd9cd00a3bf8b26aU,
  0x3ebf71953e61318aU, 0x3ef860363f107acaU, 0x3d90b8e93de9c13dU, 0xbd9100b13e9c7e84U,
  0x3ed982183e90af2dU, 0xbca348a83e2754b6U, 0xbd9da2703df90096U, 0x3e22d558bd9ed7b6U,
  0xbdb4b7f5bd85462cU, 0xbd8ee3cfbd787fa1U, 0xbf1ab0113d5c19b0U, 0xbd6800cbbf622668U,
  0xbe64e8abbf144177U, 0x3c1b5fc5bf111fbaU, 0xbf1c84443d8c8100U, 0x3d0d7f86bf18b84dU,
  0xbe396620bea957c7U, 0xbd710946bed61caeU, 0xbe95ce153db9814bU, 0x3ca0c21fbf2429e2U,
  0xbe804755bec312a3U, 0x3d61fb77bec13a0cU, 0xbe54ef653bc0bf95U, 0x3d892e88befb2092U,
  0xbdaf14c9bed1c9f8U, 0x3e14be8dbf1f39cbU, 0xbe3bbd0abdb3a7a9U, 0x3e2586eebf133a00U,
  0xbe135ef2be35c767U, 0xbd65ac4bbef39fe9U, 0xbefa3f69bdd78d99U, 0x3d7c49bdbf063f8cU,
  0xbd412a87bedff117U, 0xbdadcb9fbf0ffb18U, 0xbe97d0eebd10d151U, 0x3d1072d3bee9b422U,
  0xbdc4d32fbec8e363U, 0x3e40c9d9beda76a4U, 0xbe558da7bbb65dcdU, 0x3d8a8077bef38483U,
  0xbd3de787bf01fd09U, 0x3e0ff6a8bf0858efU, 0xbe53d836bdba1271U, 0x3dcb4119be942df7U,
  0x3cd9f344bf3d3c7aU, 0xbdcd2292bf4de948U, 0xbe8319ba3cbd905dU, 0xbb5d1769bec3cfc9U,
  0xbde5ea65bf1dd087U, 0x3e0063debf2e59f2U, 0xbf0ec19abe0566c8U, 0x3d883d37beee52c7U,
  0xbd2980edbed21dc1U, 0xbe13a3efbf3ae3abU, 0xbea77105bd843551U, 0x3e23d620bee4d2b2U,
  0xbdc628bfbec21728U, 0xbd9168edbf1b872cU, 0xbeb889983e10f102U, 0x3d5c897dbf02003fU,
  0xbd6dfcc2beab5a6cU, 0xbd3eb7ffbf0dabbeU, 0xbee780fc3dd92b53U, 0x3dda7170befe9bb6U,
  0xbe34eb33bebcaf92U, 0xbdc9ce54bf45813bU, 0xbeb7983dba1a1dbbU, 0x3adceb2abf3250caU,
  0xbcf3319ebea9d03eU, 0x3ad41b99becc9b6cU, 0xbf011061bd6f3163U, 0x3c367e39bf16597fU,
  0xbde65a5cbf146f03U, 0x3dcfc48fbec708eaU, 0xbe54877abe026600U, 0x3e0e0bdfbf072248U,
  0x3d8595aebf1329c8U, 0xbd18d0bdbf14659dU, 0xbe890a2ebc599e71U, 0x3e01ca3abe614788U,
  0x3dcc518bbf060946U, 0xbd48eb98bef6f994U, 0xbed7b0303ddeaaaeU, 0x3da96c05be98f449U,
  0xbd89234ebe930f06U, 0xbdc1ef75bf0eae35U, 0xbe528a7abcf103c1U, 0x3dff3927bea62851U,
  0xbdebe7cebf44e418U, 0x3d845032bf0454f2U, 0xbe12887e3d3e5549U, 0x3e12f42ebf0f5a3aU,
  0xbd09d22bbf28da39U, 0xbdfd01b1bf33b358U, 0xbeaaffa53e154d43U, 0x3c0511d8be8bc1b8U,
  0xbd701df1bf5bfdedU, 0xbd97887bbf29fd22U, 0xbe9fe8f03c9b1607U, 0x3dc1386abf24307eU,
  0xbd97fda0bf0331d4U, 0x3d14434cbee2b762U, 0xbebfda66bca9bd21U, 0xbd90efc3bf2600e4U,
  0xbd69fe19beb74528U, 0x3dbdb628be421bbfU, 0xbeb11225be0caad6U, 0x3e0b32e2bf0b7b39U,
  0xbe74b2a6be88ced1U, 0xbde4fab7beb561dfU, 0xbe8a499c3dc18c48U, 0x3debb5efbf03dde8U,
  0xb99cc396bf0e99f5U, 0x3d4abbf0bec70eb7U, 0xbe49ba073c34064dU, 0x3da3c5d8beaa7b6dU,
  0x3d0f9a27beafe047U, 0xbdafadddbe78b6b1U, 0xbefd84513db0bc72U, 0x3e16b773befb5039U,
  0xbd8a14cebe38d818U, 0x3d184aa6bedddd6fU, 0xbe758e44be254e49U, 0xbd9b291fbeee15e1U,
  0x3daccf0abeeb8959U, 0x3cd4a45cbed5411dU, 0xbdde62e0bd39a4ecU, 0x3e2111edbecd2c9aU,
  0xbdf39c4ebee0da3cU, 0xbdae25d9be7f2fdbU, 0xbe2492da3de4eedfU, 0xbd1b7008bef2a7f0U,
  0xbdd4a5a7bf0b6a7bU, 0x3d0863e6bf22595dU, 0xbec783563e000242U, 0x3dfc1356be9d98e3U,
  0x3d245dbcbf18edf4U, 0xbda55f37bf1f6838U, 0xbee8d6c83d6bf1fbU, 0x3da12587bef182a4U,
  0xbd53ee89bf000507U, 0xbd9369e7bf16ee49U, 0xbf09c774bd93968cU, 0xbcc9353abef4b9dbU,
  0xbdc65ee0beedf323U, 0x3e071c5cbebc10d0U, 0xbecfde9bbc8373aeU, 0x3dd252c5bf21a36cU,
  0xbe911b82bea03bc6U, 0x3d640c2dbed18580U, 0xbf120f663d861751U, 0x3d8342c1bed00516U,
  0x39da23ffbf05339bU, 0x3d3031d5bf1e94a6U, 0xbf0af58b3da17533U, 0xbcecdc84bf0e36d6U,
  0xbe68780dbebfe611U, 0x3d05fcb2bec00ed1U, 0xbebea6d23e18ea54U, 0x3bccb915bf2b2c0dU,
  0xbd8bce1dbed20144U, 0x3e357a3cbead6fdbU, 0xbe63d306bdd382a2U, 0x3e16cb75bed56497U,
  0xbcec905bbeb95ac7U, 0x3b900d63beee157cU, 0xbdc3951dbd125b83U, 0xbd068fd4bec27e14U,
  0xbd6596f1befdfd98U, 0x3b984ea6beaa7c08U, 0xbec432db3d96b326U, 0x3dadbf9bbeb17415U,
  0x3d770457beb0c433U, 0x3d740631bf123a57U, 0xbe6c13eebd64374cU, 0x3dbf9799beb53f08U,
  0xbad2e070bee621c2U, 0x3e481705bef2760cU, 0x3d0864dc3c3cd5d6U, 0x3cac4330bede2a90U,
  0xbe29bcc0bf07e821U, 0xbdcfc9cdbf0e52c5U, 0xbd0afe4e3cf178d2U, 0x3e2a4fd0bebf2194U,
  0xbe758de8bf144303U, 0xbe58abc5bf44475dU, 0xbf0947bebdac2e63U, 0x3e193112bf24c446U,
  0xbddbed3bbeb0f113U, 0x3bf39decbea0f79dU, 0xbec28aaa3d117f70U, 0xbd75fe85bf2eecedU,
  0xbe51869cbea0843dU, 0xbdbdd253beda5e75U, 0xbf16d5fa3d5bbd30U, 0xbce89bb1befccc83U,
  0xbdd28074bf00f03bU, 0xbd9872a7beea08b7U, 0xbed9018b3de96342U, 0x3db42339bf1e203dU,
  0xbdf13d26bec14ab9U, 0xbd50aff4bec3d114U, 0xbe7e59c9bd1c6483U, 0x3e271a9ebecf59ceU,
  0xbdb372a3be959a3bU, 0x3d8d52d2beb81182U, 0xbec02eb4bdad24c8U, 0xbca2af90bf0d7e8cU,
  0xb9953c3fbe336503U, 0xbd848db6becdf3e5U, 0xbe4fdcefbd1ed3f3U, 0x3ddf3b85be3926baU,
  0xbdf12d0abea9f22dU, 0xbda8787ebe8ed78fU, 0xbe6b40e7bdc64cf2U, 0x3b5196b8be87ddc4U,
  0xbdc38d5ebe995f55U, 0x3e09a6adbe87a0ceU, 0xbe6f69cbbc4d6a8dU, 0x3df88cdbbedeb906U,
  0x3d863fc6bf3b9945U, 0x3d20c462bf3c7c6cU, 0xbee6ca8c3da84014U, 0x3db8d2ebbef286f0U,
  0xbda9b950bf1b462aU, 0xbdcb89ffbf2925beU, 0xbf1786463e150b19U, 0xbd557eedbeaa9971U,
  0xbe5bc63abef423fcU, 0x3de7bec0bef448f1U, 0xbead24163e263984U, 0x3e106777bebd78ceU,
  0xbe97e695bea2c60eU, 0x3dfcfc24bf06744fU, 0xbe9ee5383e1885a7U, 0x3d251ca6bf1f88b2U,
  0xbe65c181bf228b57U, 0x3d367b65bf34deceU, 0xbef869ccbc928e27U, 0x3dd28c0ebf0f150dU,
  0xbe3456d8beb86e6bU, 0x3c9eb2c6bf0f9c6aU, 0xbe9df0443c0a4396U, 0x3d1c43c4bf0937b1U,
  0xbb9ce089beb435d2U, 0x3e471bb0becbfb0dU, 0xbf04ccfcbcdecc12U, 0x3d53d284beea7bb3U,
  0xbd63d8d6bede167aU, 0x3e45da7cbef2e750U, 0xbda511863cc41ab7U, 0x3d2f0ab0beb6e524U,
  0xbdd06654bf060190U, 0x3d909007becbf6afU, 0xbd67e8673dcbd39eU, 0x3e114d94bed1b088U,
  0x3c23079cbef00815U, 0x3e533230beb0d44eU, 0xbeab0c0ebd25dbdaU, 0xbd143644bf18b9f4U,
  0xbd88b2a6be9a35a8U, 0xbda84e6bbeff143eU, 0xbe47440d3d0a0bebU, 0x3d06e2a3be95fd6fU,
  0x3c86a218bf1c5226U, 0x3e501d69bf10aa4eU, 0x3dad3d363d6ca57cU, 0xbb05397dbe95cbb6U,
  0x3dbce3a6bf0c9ffcU, 0xbd8a3cebbed23a05U, 0xbec5ad3cbdd2d5adU, 0x3d7ea1e6bea6f682U,
  0xbe60103fbf5cc66cU, 0xbdd3f57ebf0fc4b6U, 0xbe9859c43dcfe51cU, 0x3dbbb90abf3ec03fU,
  0xbdb18785be5aed44U, 0xbde8f7c4be803956U, 0xbed742863e31a5a7U, 0x3d97f88abeb8def3U,
  0x38e2a608bea15680U, 0xbcbcb8debdf48ffeU, 0xbe8819223d762285U, 0xbd99f0debf034a91U,
  0xbdc8e31cbe85defbU, 0x3dcfa041bd7d5d92U, 0xbeb3382b3e4d1370U, 0x3e2544e1bedd5690U,
  0xbc9cc713be602a5eU, 0xbd037ee9beb97e25U, 0x3cbdd0143d3a8285U, 0x3de00a48beb5edfcU,
  0x3c93cd96be168be1U, 0xbdbbd263be5e9e3fU, 0xbdc980af3cd62922U, 0x3e32fcefbe29db59U,
  0x3dee13f0be0223a1U, 0xbda74333bec63705U, 0xbd7b470a3c790e67U, 0x3e56f064be1adedcU,
  0xbc746b2dbe6ef622U, 0x3e15686cbec88bf3U, 0xbd20b12b3e43d8efU, 0x3d2937b9bdf2024eU,
  0xbda6c661bea5c2e5U, 0xbcba7c9bbe3d58f1U, 0xbe93ed6b3e170ac4U, 0x3d79ecf9be9e7029U,
  0x3d2e152dbf23cfa6U, 0xbe663b0abed9e2a7U, 0xbe0afc343dacbc19U, 0x3bcd7762bdac3d3cU,
  0xbc1dace7bf23f7edU, 0x3cc8c312bf04c6d0U, 0xbea7ce053e41db8cU, 0x3d911fb5be1445e5U,
  0xbdcef61ebebc5d45U, 0xbbfb371dbe9634baU, 0xbe24fc383d020f12U, 0xbc93d80bbed0aa3fU,
  0x3d97fcffbe8a811cU, 0xbd18385fbd9884ebU, 0xbe4ac5903e23023cU, 0x3d55a6eabedb7cceU,
  0xbd9f664fbe24300fU, 0xbe1fe384be8b6c8eU, 0xbe37d9883db92229U, 0x3e077331bee254e9U,
  0xbdc90571be0a2da7U, 0xbe38ad05beff631aU, 0xbe8204ad3e67176dU, 0xbd78ea45bf02c102U,
  0xbddad066beb603d9U, 0x3d5b21e6be9546e3U, 0xbe32a1383d15f7f6U, 0xbceaab5abedea95dU,
  0xbd8851d1be80f480U, 0xbdc9dea3bea5afa9U, 0xbe6174ad3dac8f6cU, 0x3cf5acb9be1a76abU,
  0xbc50efd7be1f34a3U, 0xbd7a0303be29c09fU, 0xbdfeebc73e20a78dU, 0x3b7b79aebe582b59U,
  0x3e0b3825bea7782bU, 0xbdb1ed89bec12f86U, 0xbd0c31333e2065f3U, 0xbba48868be76bb1eU,
  0xbda201ecbea7f97eU, 0x3d047bb4bea4ed4bU, 0x3b9620dc3c0178adU, 0x3de9eccebe3a88fdU,
  0x3e191686bedc97e0U, 0xbdf560c3be985a06U, 0xbe012147bd2a547dU, 0xbd180bb7beaa4fc1U,
  0xbe088400bf0477f1U, 0xbe493a69bea1ab88U, 0xbe6097583e49bc15U, 0x3e2a1107be951171U,
  0xbdb9fdfbbf3ac46aU, 0xbd4ade29bf2e958dU, 0x3de7220cbd2dbabfU, 0xbe352ae13e58e047U,
  0x3d3cd2093d87b8dbU, 0xbdd0f44f3e23ab15U, 0x3e11773cbe5f7b12U, 0xbdf1692f3e7a2444U,
  0x3d1ebc0d3de5ccf9U, 0xbd43cc9ebd78e5b7U, 0xbd116cd5bd329c06U, 0xbe7c796d3de6aea4U,
  0x3d441dd23e319f72U, 0x3dc7ca273e425dfeU, 0x3dd33455bae3289bU, 0x3cc97f193e445863U,
  0x3d5c2f393cf9c93fU, 0xbdb30de63e4a66f3U, 0x3e6ab368bcc39a12U, 0xbe3e246d3d49988eU,
  0x3dcabad53df0a710U, 0xbda145193d9c602bU, 0x3d33001ebe8cc232U, 0xbe6758823df1cfd3U,
  0x3e703d383dbfea0bU, 0xbd4e8a5d3e646e0dU, 0x3d5d9a50be5cd0d2U, 0xbc44a2c73e1d813cU,
  0x3cdb41383d7e926cU, 0xb9163b633de186c7U, 0x3dda2ad3be4ffe24U, 0xbeac31c53e698670U,
  0x3c9756a23d71b203U, 0xbda827813e73482cU, 0x3d402779be297b8aU, 0xbe531c083e7b9999U,
  0x3e58b26b3d8a52e8U, 0xbb83e0b63de477a9U, 0x3e738662bded73b7U, 0xbe1229e8bc4cfd7dU,
  0x3d299e843d7dcdfcU, 0xbe755103bce719d4U, 0x3c8ec70bbe336bccU, 0xbd0dfb213defe9b9U,
  0xbc8298ed3e2951c4U, 0xbe29d9b43e5a2344U, 0x3ded5ef0be5413f3U, 0xbe4d0ea63d162f6aU,
  0xbd9c29913d9bc2f4U, 0x3d760c713d8498d1U, 0x3dda9624bced4025U, 0xbe586b123e8ba540U,
  0x3c2fe6333e43065dU, 0x3ce8fed83e7d85f8U, 0x3e307edbbde0dda3U, 0xbdd8dbc73e505eb1U,
  0x3d61e6a5bc891fccU, 0xbe0d9e6b3d27eeecU, 0x3e21672cbc76ab2eU, 0xbe60ce6b3e343154U,
  0x3dc41f263ea58bc7U, 0xbdbaedda3da93dcfU, 0x3dd11be0be34fedbU, 0xbe4917cc3d354369U,
  0x3d3410803e5ca5a9U, 0xbe0023083d474cd2U, 0x3cd9e11abe85fe54U, 0xbe03f0433e3dfefdU,
  0xbc85599c3d62b774U, 0xbe20dbac3e5b7362U, 0x3de8fe8ebe5c5736U, 0xbe6b850b3e1bda7eU,
  0x3e344a07bcd245e2U, 0x3d7f24b73dfad7cbU, 0x3df83132be3c88b3U, 0xbe6641ecba973d51U,
  0x3e38d8123dc032c9U, 0x3ddb37be3db91e39U, 0x3e4395b4be875e59U, 0xbe27ad7e3d6b6cb7U,
  0x3da1da733e577e0bU, 0xbda397973e7921e2U, 0xbd1a887a3afbf956U, 0xbd06ff9f3e1d2eecU,
  0xbc9d92333cb78757U, 0x3c6a1f1c3e7ea6d9U, 0x3d4b6bdabde332e0U, 0xbd16a3543e1cc235U,
  0x3da755aa3dd5b3feU, 0x3d6c27123d4b3481U, 0xbd0772e83e0520c6U, 0x3eb9d8ccbd6b92e7U,
  0xbd5d6f28bc994be7U, 0x3df10b343c034566U, 0x3c09b4543de11b46U, 0x3e5ce8eabcce2d58U,
  0x3d07bd273a9aec39U, 0x3e15f62a3cdf6454U, 0xbd6a3e213d6665c9U, 0x3e28ccb7bda0e9aeU,
  0x3e183cf4bdb157c6U, 0x3e15206a3e196513U, 0xbd9798c23d84e805U, 0x3e34d0fc3d28fa7bU,
  0x3e2e99903d5e9b68U, 0x3d4cf0c1bc84d1e4U, 0x3dfc0eb33e8aa3e5U, 0x3eb16bdbbdb5f044U,
  0xbda82613bc27af6aU, 0x3d916743bd0dafeaU, 0xbcc034a23e9957ffU, 0x3e77c602bc42c7acU,
  0x3beb4db8bdf28568U, 0x3dc13083bdb02bf9U, 0x3da72abb3e9dc123U, 0x3e767053bdf2c375U,
  0x3d9b18813c7b3d25U, 0x3e27daf9be123585U, 0x3d1d31483e1ab1c7U, 0x3e5c9bea3da13114U,
  0xbd00e7b8be216f75U, 0x3e878951be281aa4U, 0x3b83f93f3e2fc2ebU, 0x3e3cb8bebb8ad806U,
  0xbcbabb44bd90c28eU, 0x3e195e30bd575cdaU, 0xbd8cd2c73e4a372aU, 0x3ea793843dab1463U,
  0x3d55219abe5fb58eU, 0x3e90d448bd954175U, 0x3e0d2e973e4f9a03U, 0x3e82a67d3dd9f2e3U,
  0x3d23de783d73ffd6U, 0x3e6c1c40baaec725U, 0x3c9a1ed73e0776efU, 0x3dfe149cbbd897bbU,
  0x3e030b53bc7e8bc4U, 0x3cf8e882bb587b26U, 0x3d31dfab3e064e1cU, 0x3ea033d9bdb6c439U,
  0x3df5fdbf3c249110U, 0x3e046a4dbd7187b8U, 0x3b71286f3dc2f9d6U, 0x3e6d5b49bd20f916U,
  0xbca3f9773d9d7da4U, 0x3e3bf3b3be2e794aU, 0xbdf4890d3e11f761U, 0x3e07d7df3db64519U,
  0xbdc5c9693b78a18eU, 0x3e00c48e3d24a6dbU, 0x3d570d703d894de4U, 0x3d3f770f3ce9f7e0U,
  0xbbd6fb2bbc48aadaU, 0x3e3864c53e13fbe7U, 0xbd1cc11e3e868ab3U, 0x3e815d7bbd5ec4f9U,
  0x3deaad5f3d47063bU, 0x3d8d7013bdb7db03U, 0xbbdd39683e900888U, 0x3e7b2979bd9f1d92U,
  0x3bbf1e373caa3257U, 0x3dafb75fbd9abcb3U, 0x3dd9b6e43dc6c192U, 0x3d92f5893d41e720U,
  0x3d2500643d4dee46U, 0x3e49350ebe01e5fbU, 0x3c80133e3e8e806eU, 0x3dfad2f63d507777U,
  0x3e264d273c9fb1d7U, 0x3e22d626bce168f3U, 0xbb8fb5733e88f1d1U, 0x3e85369ebdcc7318U,
  0x3d9c13d7bdbbfdfeU, 0x3e21a4dfbdc0670dU, 0xbe6fd7b33e5c91afU, 0x3e5fa27fbcc009a5U,
  0xbe7cf7da3cad6dc6U, 0xbcb3d8e7be1d65cfU, 0xbedcd93e3e13a9caU, 0x3e2f6155bf52ba3fU,
  0xbe8220a0be9bb6bcU, 0x3e021936bec99344U, 0xbebe3847bd42312cU, 0x3d7fa776bee45cf3U,
  0xbe69768fbe28c2a4U, 0xbe0022a6beb6dfb3U, 0xbe64b533bd870edeU, 0xbdcceccdbf151df6U,
  0xbe7d9b86be95a9f0U, 0xbe540d73beaeb6baU, 0xbdf4b00e3e35fe1cU, 0x3cfd65ffbf2d2d4fU,
  0xbb3edcbebe952234U, 0x3ddd466cbee1088dU, 0xbe4ea69a3e0145deU, 0xbdd77c84bf06ce71U,
  0xbd82eae9bec873cfU, 0xbc6d379ebef29facU, 0xbe4496473d27833dU, 0xbdc1678bbea4a736U,
  0x3d9b7947be6c03b1U, 0xbd968fd7bebc9148U, 0xbebe51d43d3ff652U, 0xbdecc77dbe76c96bU,
  0xbdc1b69dbe9f6959U, 0xbd8ffee0bf02d993U, 0xbdcb604e3df098c5U, 0x3cfdd983be78e8c0U,
  0x3ce22c24bec780b1U, 0xbc002a15bea1d73aU, 0xbe601ee43e193b24U, 0xbd3db297be9b9a3cU,
  0x3d47a02fbf009ac0U, 0xbd915f8dbec10591U, 0xbe7a3c443e16ed2bU, 0x3da7c404be4788a8U,
  0x3d3da6c1bedd37b5U, 0xbd1e5877bf44e202U, 0xbe6f835abde427d8U, 0x3e12c458bea2bc9bU,
  0xbe0a9ec3bef46b37U, 0xbd9d5de0be8dcd8aU, 0xbe80fec03d6cf168U, 0xbd7f5ea5bf18bcbfU,
  0xbe42e8afbdef24aaU, 0xbdcaabbabeec62a7U, 0xbedfa6873d86c03aU, 0x3d41f8afbef79f1fU,
  0xbca40e08be9b0e4bU, 0x3c08f260be952809U, 0xbeeb7c153cc08023U, 0xbd6ec34ebf1b8928U,
  0x3d1ffbc5bed7d3acU, 0xbe4425f4bf05be24U, 0xbea1cf073dfa3b05U, 0xbc21efd4beed22e0U,
  0x3cb0839abee834dbU, 0x3b620fd4bea5ff0eU, 0xbe6a0758bcc82c26U, 0xbd0b33bebef7dcf9U,
  0xbd3d996ebee2b67cU, 0x3d6aaed3bec3e6bbU, 0xbe3c8628bd13a5e9U, 0x3d8ca1a4be51e7eeU,
  0xbe1592abbf028474U, 0x3dc90fcdbeab7971U, 0xbe192ddf3dcba31cU, 0x3d39f3c5be4bb251U,
  0x3ca7452fbe581448U, 0xbc055fb0bea3a446U, 0xbe8afab53e07f7acU, 0x3e1bbe29bedf719aU,
  0xbd46c135be162825U, 0x3d133767bf1de1fdU, 0xbdb756303d418750U, 0xbbe415a3be87d9acU,
  0xbd025127beb5e50dU, 0x3df9937bbf00ebdbU, 0x3e2cd5753e09e08bU, 0x3dacc11dbe888750U,
  0xbd49847fbef6149dU, 0xbdbc9590be9ce513U, 0x3c09947d3de88290U, 0xbd5f8448be34a180U,
  0xbd219da4bf4e2278U, 0x3d8e9740bf2e54afU, 0x3e1553b53c8a93aaU, 0x3d9a178a3e32c94dU,
  0xbdd7a61b3c78f194U, 0x3e5698a43e4eff40U, 0x3db603083d5e935fU, 0x3e68f3673e2d6653U,
  0x3e2ccfbcbde58076U, 0xbc855b8dbccaaa74U, 0x3db3ac9e3e44622cU, 0x3dfc91673e615719U,
  0xbdc773553d2af1ebU, 0x3e2a8177bc9b7b16U, 0x3d6b77bd3d942be8U, 0x3cb28cc83deef650U,
  0x3dd263663e1b8dafU, 0x3dbfa917bc8e62f7U, 0x3aca391ebd5d9e5cU, 0xbc54dc3bbcca27c0U,
  0x3dd522203d86bc12U, 0x3cf65f2d3cbb7355U, 0xbb55cc0b3dac43dfU, 0xbce4453fbd6a712aU,
  0xbd9253e53d8bc372U, 0xbda831003e06697dU, 0x3e318f193da8675eU, 0x3e2a2dff3d6e5f25U,
  0xbccefa82be02acf2U, 0xbd3d9168bd20de31U, 0x3d8efd00bb9f4772U, 0xbc42f97a3d62439cU,
  0xbb444eea3e0d588cU, 0x3dd22476bd8af1f8U, 0xbdb0f8f0bd944f29U, 0x3e1d8c6cba8211abU,
  0x3d91f1913e79d4b5U, 0x3e3a7e713dc99a4cU, 0x3e4b538abda38baaU, 0x3e4a4a6a3e024e6aU,
  0x3deb1bc03e12c1d5U, 0x3e625d883e59d198U, 0x3e0f7a3abc775ae0U, 0x3c9ed2423e5217ecU,
  0x3d2416963bfaa115U, 0x3e0092613e451409U, 0x3e3dc4df3d989ee9U, 0x3e1a47e7bc469ec3U,
  0x3d7776153d4e77aaU, 0x3e31d24e3d09bbd6U, 0xbcac5de7bd2d5798U, 0x3df77b873e87ba25U,
  0xbcf934d73deca7c7U, 0x3d34d1c33dab4a3fU, 0x3db7ab9e3dcad3c7U, 0x3e0d2e153c1d9601U,
  0x3c73dc543d40cb54U, 0x3e7a928d3e3cea67U, 0xbcb24a6f3de4c4f0U, 0xbbdbad763d98ec20U,
  0xbd979ecd3d7757f2U, 0x3d0ac7123d9e1817U, 0x3d89f0f63dae6b03U, 0x3e706e1f3dd65a59U,
  0xbc4b71203d64994fU, 0x3de9ca92bc506f4bU, 0x3e25b3e03e3122c6U, 0x3d7e63f53bedff89U,
  0xbdec2c613e03493bU, 0x3e25e4693dac5123U, 0x3e0b268b3b68463cU, 0x3e87c4f23e10a1eaU,
  0x3d85b70e3df797c3U, 0x3e3964d43e2116fbU, 0xbd29d0443cc81ca5U, 0x3e5445523ca0f152U,
  0x3c948d1e3e0b575dU, 0x3e1a57673d8b995cU, 0x3d7c00f93d12f4b9U, 0x3d2f321b3c37f9b9U,
  0x3e08760cbc34c2b3U, 0x3bb8f7663e6160d5U, 0xbe3a3c68bda73863U, 0xbd18789ebce45056U,
  0x3de665623e18a50cU, 0x3e8eca1a3e089b03U, 0xbcbecc0f3e28f6a1U, 0x3e3abfe4bace5ae1U,
  0x3dad607a3e439558U, 0x3e4d79843d90ecdbU, 0x3ed92789bdb9debbU, 0x3e11d2ab3f139c04U,
  0x3e409da93e71944eU, 0x3e147d0f3e6c40d2U, 0x3e83d1f33ce3f8a6U, 0x3e0abea23ecdefe3U,
  0x3e4598a63e089d7aU, 0x3e338177bd7b758bU, 0x3e8a2fd03d57fa1eU, 0x3d841d1b3e8ac681U,
  0x3d88e47a3ea3edeaU, 0x3e06edb73db8095dU, 0x3c0842673e102a0dU, 0x3dc8a3193e8132efU,
  0x3dbb95b13de97d85U, 0x3cca177e3e26aae5U, 0x3e6ec2b43dc11901U, 0xbcdc38f03e436897U,
  0xbc4707343d3ba7a8U, 0x3df97a843df5faeaU, 0x3e31a4763d5b2c31U, 0x3c02c5b93dece0c4U,
  0x3dd9ffaf3e993199U, 0x3de422823eaca495U, 0x3e92755fbd624a5fU, 0x3d9f0f813eb728ffU,
  0x3d175e443d8d11d3U, 0x3d82670d3eaa5ca7U, 0x3dc9d43f3cbb3d84U, 0x3cc017e53db7d5fdU,
  0xbce46f783eb31ad0U, 0x3db714fc3e88f3b1U, 0x3e79a76dbcf52315U, 0x3dc424433e2d9a8eU,
  0x3e0da9e63f16a641U, 0x3e6b3db33eedd128U, 0x3e86138dbcd9e6c9U, 0x3db6eaf23e9ce759U,
  0x3d828d3f3ee85c78U, 0x3c9ebd903f18063dU, 0x3e817842b99ca0acU, 0x3d32c8ef3e61210fU,
  0x3ea983413e9ec2b9U, 0x3d65d7b73e5052c5U, 0x3cca2a943d015018U, 0xbcf3fe2b3ef4fd4dU,
  0x3e910d043e26be58U, 0x3e8c49c13e9565b2U, 0x3eb502953c7e5493U, 0x3c6c15c83ecc4c4dU,
  0x3e0cbf013d4a0227U, 0x3e2b31273da6c3ecU, 0x3e66b640bbcb2c31U, 0x3cdb7f133f0589fcU,
  0x3da25ba73c3a8a73U, 0xbc44169e3ecce6a3U, 0x3e9c64cb3d9669ecU, 0xbc2186243e969e39U,
  0x3e8075023eba15adU, 0x3cdf79453e93e214U, 0x3dbbf3e13d8ff6ebU, 0x3e2f93503ef9d8d1U,
  0x3d7399233eba7630U, 0xbdc429b93dc80132U, 0x3e68d8713e0eed42U, 0x3d9c23783de7e2bbU,
  0xbd939c163ebf733dU, 0x3e3ff9a83d70331cU, 0x3e784af93cc2b396U, 0x3d8d8b353d44adc2U,
  0xbdd31f2d3e98f372U, 0xbe0da36b3ebe5d16U, 0x3d166b8f3e0b0c9fU, 0xbd567d613e081ea8U,
  0xbd8b04353e94b5beU, 0x3e0293a53e4357ddU, 0xbce7b31ebaee1f90U, 0xbd7847c03ea07263U,
  0x3e51bdb73e5f1f30U, 0x3d8881d63f129389U, 0x3e0e76f43e05d34bU, 0x3d1b81b53e6b7220U,
  0x3e35090e3f1745c0U, 0xbd6f58113f00615aU, 0x3ea1ba06bcdf2eebU, 0x3b4205523e2080a7U,
  0x3e6dc03d3f37035aU, 0x3dd5fb7c3f3a8608U, 0x3e19c9f03df210c0U, 0x3d601852bd09b131U,
  0x3dcfc9753d9c5b97U, 0x3e18ba9abc6aee87U, 0x3e4641933d6b52daU, 0x3caf67dd3d391c56U,
  0xbc8f3beebe0c27adU, 0x3c8814d73c177ae0U, 0x3dd761823abc9bc8U, 0x3d309f77bb597b86U,
  0x3e00110a3e5a457fU, 0x3e833b993e6195e1U, 0xbcec304bbdb6d13cU, 0x3c1594de3e365127U,
  0x3dd47c5a3d175dd3U, 0x3e50f28fbc0e231aU, 0x3e273a9f3b07e4d7U, 0x3e35db3c3e09d7abU,
  0x3dea9ef23daa5c63U, 0x3e1c08e73dc647d7U, 0x3e1b9bbe3e25940eU, 0x3e4ef5fc3d73529fU,
  0x3d6f11c63dda279eU, 0xbc1c852e3d6f925aU, 0xbd0ebe5ebdb422dcU, 0x3e1a08f4ba9a0395U,
  0xbdf85155bd1c605fU, 0x3db3305a3c1219fcU, 0xbd9290da3c81fbc3U, 0x3db6eafb3e4b0db0U,
  0x3c10e2503c8d60caU, 0x3ddd406bbda54fccU, 0x3e18f9393df5855fU, 0x3d3ae9cfbd6318a8U,
  0xbda2cf503e40e5d5U, 0x3e9c97e33e06e8eeU, 0x3c8cbddc3ce3d90dU, 0x3e0e4def3e431327U,
  0x3c6701b53d711234U, 0x3e6788353d750540U, 0x3e67545a3dc13814U, 0x3e28e60f3cbfb920U,
  0x3e1397ffbd498a5bU, 0x3e0c45b03e0c7ebeU, 0xbda07f8e3dd41613U, 0x3dd623aa3c6ccc80U,
  0x3e44c22c3e1f8269U, 0x3e8e553b3d41814bU, 0x3cc104903dc41414U, 0x3e61d88e3de8f9f7U,
  0xbd905bd8bd61bb68U, 0x3e2a08ecbd6cd7e5U, 0x3db581a93d983ea4U, 0x3e2f4e3a3df1d3eaU,
  0xbd70528dbd8667cdU, 0x3d6e76463c93fd08U, 0x3e3b11393e03d7aeU, 0x3e5927aa3e49b034U,
  0xbc9ee1cfbdac3ea0U, 0x3e4457363d91b6efU, 0xbd7bd0fa3df20416U, 0x3cb9b6d73e21856dU,
  0xbe1392ddbce6cd78U, 0x3e29704b3e5e3c13U, 0x3e16aaa33dd7573eU, 0x3dec3f543cceb77bU,
  0x3c766ebebdeb24f5U, 0x3e2984cdbafc31edU, 0x3d7630463dde8c4aU, 0x3e10d2fbbd98c35cU,
  0x3db3d4f43e0f0f60U, 0x3e069ebf3d84bb4eU, 0x3c72cc883ccd2188U, 0x3e0899f239d9340aU,
  0x3cf6d82cbbd3e306U, 0x3dca34123dbd8dd3U, 0xbd7bdd113d44b25dU, 0x3e7c591d3e4ce39aU,
  0x3de8d5053e45cc97U, 0x3e8259b23e1365dfU, 0xbe336ce03e6830bcU, 0x3d9338213d5fc035U,
  0xbe29705a3ea217c7U, 0x3eb0efba3e42039fU, 0xbe23eeb43e89a9fcU, 0xbc4245613c8e12b3U,
  0xbe68c32c3e9eef3dU, 0xbd710923bd0d6efdU, 0xbf0ae3eb3d993196U, 0xbd25d64fbf1dacdfU,
  0xbd5c0b2fbf0f6715U, 0xbd226ab3bee4c5afU, 0xbf0e7c11bdb707feU, 0x3b8d00f7bf1358d1U,
  0xbe46d4debebd488eU, 0xbe05c20fbdbf9c71U, 0xbe88da793d7b5082U, 0x3da50c2bbf258a71U,
  0xbe1ffe5dbe8e6004U, 0xbe236eabbec98a1eU, 0xbe1ceb3dbd56e9deU, 0x3bc678f1beeb69ceU,
  0x3d334751bebaff48U, 0xbe287ea0bf10b39cU, 0xbe1c470fbd16c3fcU, 0xbd195943beea8245U,
  0xbd717478beaf48acU, 0xbb7740c2be81bea2U, 0xbe975401bd558f2fU, 0xbd77bd35bed4b274U,
  0x3d843aaebe7509faU, 0xbd88627bbebb30eeU, 0xbea993283d77daf1U, 0xbcbf080ebeba6f9bU,
  0x3e06dbcebe0d731fU, 0xbd70810cbe5fbcb0U, 0xbdc1f5fe3e41e88cU, 0x3c9e2ed1be93339aU,
  0xbe117ae3beec1db9U, 0x3da350ddbef61a5cU, 0xbe2935aa3dda5ee7U, 0x3ddc5c8bbebed56fU,
  0x3d7a874cbf47de0bU, 0xbe22fc78bf006aaeU, 0xbed9aca83e05e7d9U, 0x3dc15844bee9bdd9U,
  0xbe2c0e12bee7279dU, 0x3d85be01bf2800beU, 0xbe9541973dadd472U, 0x3d92edacbf05f9e5U,
  0xbd3d231fbe52211eU, 0x3da6caa8bef90974U, 0xbea04bb0bd54c8e2U, 0xbdcd8057bf070e10U,
  0xbe716e8abeb05fc5U, 0x3d5ae0c8bf0dfee9U, 0xbecccc223e3c8ba1U, 0x3e1a5162bed50dceU,
  0xbe31a397bed82851U, 0xbd2be4c2bee9931fU, 0xbed95e233e096b6bU, 0xbd010c17beb63ebaU,
  0xbd8984b7bedb7069U, 0xbc82bf2dbf12ad4fU, 0xbeb3d5773e1d98beU, 0x3e04dcecbee4546aU,
  0xbe6b1a51be9ce763U, 0x3d503a0bbed21a2dU, 0xbe7f43e0bd362739U, 0x3d2e864dbf1ea5c6U,
  0xbe3d53efbea6014fU, 0x3e17a859be9502daU, 0xbe2f30533df65a1bU, 0x3dfe7683bf0845e6U,
  0xbd7aab39bef971c0U, 0x3d7e70fdbeb4fd3cU, 0x3bc0cff83d56295bU, 0xbca8658dbeba6615U,
  0xbe10c2e7bee6ad9cU, 0x3dd23e8abecca6d2U, 0xbecd68313e03ae80U, 0xbd91f9c8beb778f6U,
  0x3d9f0dfbbec5087bU, 0xbd20541cbf1f7e61U, 0xbe8728113bc8ac15U, 0xbd588196be9b7c5fU,
  0x3b9094c6bee94bfeU, 0xbbe07239bf12b659U, 0x3e81f2613d532235U, 0x3e190078be3af576U,
  0x3d5c9968bf11569fU, 0x3cdf359cbee307d3U, 0x3da148743d19432aU, 0x3d287cc6be102789U,
  0xbe4d9ca5bf454246U, 0x3daca82cbf2a32eeU, 0x3e8357a6bcbd87ceU, 0x3e0d12ca3ed07b2eU,
  0x3e1540123e532e64U, 0x3e7e47403e2d6a1cU, 0x3e672dddbd926b0fU, 0x3d5b07a93eccda15U,
  0x3e453fc9bd287f1cU, 0xbd0cbc973e1cf015U, 0x3e17f3783de95c6dU, 0x3ca481333e831e2bU,
  0x3e2f62ab3db369daU, 0x3e30628f3e83693aU, 0xbc223a32bd357b8eU, 0x3cdced5d3e6e857eU,
  0xbde9a388bc251f85U, 0x3e5e92da3e613b45U, 0xbcbda6613dcdfe53U, 0xbd40fc5e3e6828ecU,
  0xbdccb5473e81ee7cU, 0xbd71c43e3e02269eU, 0xbd0f8b7e3d2b692cU, 0x3d475dd53d9fb94dU,
  0xbda162963e316070U, 0x3e069ce23deed661U, 0x3dbc1f67bd6ea831U, 0x3ddc4c2f3ea6ce49U,
  0x3ba10dbf3e6dff9bU, 0x3df02faa3e7551f3U, 0xbc84728d3da10e31U, 0x3d3a72053e188d01U,
  0xbdd8082c3e76ff4aU, 0xbc85101b3e64bc5cU, 0xbd91cc503d7cb2f2U, 0x3e1ca8e63e800c56U,
  0x3e35fa633eb9ee74U, 0x3d6190a23e8817cbU, 0x3ead470abaced711U, 0xbd8071a93e8bdd4aU,
  0xbc25fee33ebe6a59U, 0x3e51548f3ee1d73dU, 0x3eb165edbd715f56U, 0x3d890f7e3eba2e4bU,
  0x3e5bb3733e7891b8U, 0x3d6173533e6bf3afU, 0x3e5e8bba3c6f4343U, 0xbd88c4563e21d2faU,
  0x3e164f3e3e12cb83U, 0x3d4d21c53e52d9e6U, 0x3e0021683b0a4362U, 0xbd3d68893eaedd06U,
  0xbdba8d8c3c6c8e03U, 0x3d9497853e0319fbU, 0x3e739d76bc8e77d4U, 0xbda4d8603e69783dU,
  0x3d3581a03dd02546U, 0x3e65b0533e9871f8U, 0x3de989aabdc3f99eU, 0x3e3943ec3e44ebaeU,
  0x3e8916463e5ecd69U, 0xbd9418883d9df038U, 0x3e50ebee3e02f93bU, 0x3dec7de13eba0d4dU,
  0x3dd716ae3ebb3a6eU, 0xbc5a4b1c3e37c1f3U, 0x3e40c373bdb7155cU, 0x3c968b823e7267f1U,
  0x3ca791283dbe0802U, 0x3da6355b3d9392c5U, 0xbd26d9db3e3654afU, 0x3e3951293e62865aU,
  0xbe2cb4e23e22cfb4U, 0x3c8b76d93e87c034U, 0x3d8568cabd2a4972U, 0x3cad0b713ea27fdfU,
  0x3da72ae03e951c73U, 0x3dbcf41d3e99df94U, 0x3e3157843dd97811U, 0x3e43060e3de497bcU,
  0xbd8640073edeb8e5U, 0xbd902a063e8f65faU, 0x3d953060bd86bc19U, 0x3dcdbe993e0f161cU,
  0x3d8ae0223ee06022U, 0x3d59863e3e8aa7d2U, 0x3db33ffc3d58f205U, 0xbcfa19403e0d58b0U,
  0x3d7592973efc56ddU, 0x3da309003ec4455bU, 0x3e754a3f3de799daU, 0x3dfe42ec3f090043U,
  0x3e55b54d3e4c05d1U, 0xbcbea86e3e3eb0bcU, 0x3e99b94c3de97a12U, 0x3df6bc2e3e8a2f15U,
  0x3e57dac83e591c54U, 0x3ca9d607bd1c7d10U, 0x3e895ddebd11c38dU, 0x3ca28d593e8e984eU,
  0xbd8e1be33e59225aU, 0xbc2b445cbce8822aU, 0xbcec537d3d94217aU, 0x3de2de313e8c386fU,
  0x3c17140d3dd6b298U, 0xbdd637c23e38cb1bU, 0xbd119f6e3d8a76bfU, 0xbd57a4af3e89dfdeU,
  0x3e016fa43e4f88d0U, 0x3db8b1043d0284e6U, 0x3e2d59e43d93f91aU, 0xbcf0f12b3e1e8de9U,
  0xbdde76173dea4d5bU, 0x3dc8af393df0e3bbU, 0x3e565feb3cb6e51bU, 0x3c8b80d93e39d052U,
  0x3dbbb5033e0aba7bU, 0x3d0831ac3e9d152bU, 0x3d705a333ba98ddcU, 0x3ceb26643e8bcff1U,
  0x3e2e4ed43e3e7cd3U, 0x3dc11ef13d6a9195U, 0xbc8519c2bb9c11d3U, 0x3ca186063e479036U,
  0x3cc6cdc13e8da2b1U, 0x3de0dbc53e7fc881U, 0x3ead8b013ded5f3aU, 0xbc98e2ef3e066deeU,
  0xbd8236983e923c79U, 0x3d0f5bbb3f0756ceU, 0x3e56e94d3a2c4375U, 0x3da3de983e458233U,
  0x3dc6fc6a3c2ce617U, 0x3ddb17203dfb8cd5U, 0x3e066fda3d18184dU, 0xbd5495603e3b4db3U,
  0x3c23a2163e0870d6U, 0x3d1382c53d99eb9eU, 0x3deeb8f33cb475a4U, 0xbaa32ce23e09620aU,
  0x3de962213e0c530dU, 0x3e57b67d3e1aebd7U, 0x3e46d91dbdbb9f40U, 0x3b2e4f6a3eb0a11fU,
  0x3e8025693e5fea34U, 0x3e785a593e3e4aaeU, 0x3e8a9ee33dacb241U, 0x3e1beeee3ee7a1ecU,
  0xbc2974083e05b123U, 0x3c9b14133dbc0299U, 0x3e6ea1743c875c4eU, 0x3e4adaf13ed744c3U,
  0x3df143e23e8141d4U, 0xbdd139d13d9f4c13U, 0xbc8418b33e0fbdc5U, 0x3d891d0d3d1ac66dU,
  0x3da7d5523d97cbebU, 0x3e22c3963d9352d6U, 0x3e335847bcea529eU, 0x3cf11d7d3e510d93U,
  0xbd86d2273b0e10c3U, 0xbd075ff23e5bbe83U, 0x3d4ff6d03c952cddU, 0x3e2d14833e67280aU,
  0xbcc676cd3eb7bb3bU, 0x3d8a01a33e98fb62U, 0x3ddd6293bcbb57beU, 0x3e14a1ec3e6e2eeeU,
  0x3e1c81893e5a81daU, 0xbe1ddb713ebd701eU, 0xbd43cd063dccb9c5U, 0xbd82bb7b3e90d778U,
  0x3e8befb53ee95b2aU, 0x3d56cee43edf7861U, 0x3e3e1c2e3da9d2e5U, 0xbbbc62ee3e066b65U,
  0x3e0e58553f00f17dU, 0x3e0fafcd3f24b57dU, 0xbda1af69bdb3c992U, 0x3e3ccd933e306bc6U,
  0x3da0d2583dca778aU, 0x3e21452abc0e7868U, 0x3e3b813a3dabd32dU, 0x3e18a0853e1de83cU,
  0x3dedc6bb3e1090ebU, 0x3d3ce21d3d909dc6U, 0x3e9223dbbc40a022U, 0x3e5219203d7379f5U,
  0xbdfafb453d9a6c3dU, 0x3d6abc1abd1fdb2aU, 0x3da808eebce1050bU, 0x3e0633023e9413e8U,
  0xbd35bf383def38c4U, 0x3e462c78bc47ae0bU, 0x3dca2ceb3e0ef23dU, 0xbca83f5d3df56192U,
  0xbe4cd87bbcf179c2U, 0x3a8af4143dd19c1aU, 0x3d0ff3213e2048b9U, 0xbca3ea3abcd2f7bcU,
  0xbdc918c0bd0cea41U, 0x3e05f0d8bbbcb1d2U, 0x3d888ef23e10714fU, 0x3e3e3c273db40d21U,
  0xbe1fe26dbccb5419U, 0x3d615f963e1a1984U, 0xbc76c188be1fa8d2U, 0x3dbe05383cdb2130U,
  0xbdacd6783ddf0ca8U, 0x3e512de83e5ea1c7U, 0x3c2391fcbe049cf6U, 0x3e288adfbde4983aU,
  0x3e3087803cdf0e67U, 0x3e0cfb353e248a6fU, 0x3e07e7eebdba9e91U, 0xbcc548e63cd0151cU,
  0xbdc2df6a3e0f6cc8U, 0x3e920c8f3e6e6686U, 0x3e9d566dbd9f2d9aU, 0x3e1693483dd511b6U,
  0x3cf569433e53e397U, 0x3e1b1eda3c4a8fa6U, 0x3e19ebc73d14fc26U, 0x3dddffdb3e6c9cadU,
  0x3d388c8f3e0c27beU, 0x3e95405c3e1b8b71U, 0x3c4cad363dcf5e16U, 0x3d77c14e3e558167U,
  0x3e23e6433e11af74U, 0x3de07c8abcbeed3dU, 0x3e0e19623e04bff5U, 0x3debd5c63e91e0f9U,
  0x3d776846bd3c76f2U, 0x3e8238cf3e338a73U, 0x3ddc060dbcf829e3U, 0xbd17070e3e505963U,
  0x3e041e6f3dfa8682U, 0xbb764feb3da3709aU, 0x3e2531cc3e119108U, 0x3e26a6933d241aabU,
  0x3d777f623cff315bU, 0xbc32a95a3e0420a1U, 0x3e36c37dbcafb7a1U, 0x3e529810bdec9991U,
  0x3de115113d1b2f52U, 0x3df689043d7f42bcU, 0x3e3c44873c889827U, 0x3e297f323e115a57U,
  0xbd286ca23db889bbU, 0x3daed71b3e0e2fefU, 0x3c86eee53e26904eU, 0x3d2b39503e30737bU,
  0xbd9d0be53e3fcee0U, 0x3e4608213d65af53U, 0xbd87d5f1bd968bb6U, 0x3e1c6d87bcbb97c5U,
  0x3d3b126e3da04c88U, 0x3e87728a3e9c4979U, 0xbd9aedec3de7fcfdU, 0xbdbd3b4cbdf708dcU,
  0x3b8ffeb43e4f9548U, 0x3db20f383e8df88aU, 0x3ce0f9db3e326051U, 0xbdaa5e11bcde0134U,
  0x3d1d9aa83eb8bf2eU, 0x3e391c11bca772a8U, 0xbe2908a33e2ab30bU, 0x3e13f400be3d6367U,
  0xbd38ba6f3c811739U, 0x3e0ca7d9bdbed9f9U, 0xbca17c043e280de3U, 0x3e40d3f63daf5f7eU,
  0xbd10b97a3deec90eU, 0x3dda44123d67d4e6U, 0x3db000983e460371U, 0x3d8ad753bbc0c1e0U,
  0x3dd1f3d8bd3cdc7aU, 0x3e2efaee3dc094a8U, 0x3cd35f163e2e953aU, 0x3e63d6003dcb2d90U,
  0x3d49124d3df2b219U, 0x3e47a6de3cbfc76dU, 0x3da51d693e2b888eU, 0x3e9031343d2607a5U,
  0x3e00eb713dcf7f7eU, 0x3e132894bd82cc66U, 0x3e09c8303e4ebe83U, 0x3e98e78abd6f56f2U,
  0x3ccd53d5bd9468baU, 0x3e159256bdb15075U, 0xbc2782dc3ea618c6U, 0x3df90b5c3db645ffU,
  0x3d6178f0bc4a716fU, 0x3e00dc1ebd88d98dU, 0x3d643f933e419c72U, 0x3e801262bddf0c3fU,
  0x3dff9b643d750335U, 0x3ea4c678bdbba88dU, 0x3dbbd2723ca8793bU, 0x3ebcc0c23db3968cU,
  0x3d9de4a8bcf53c85U, 0x3e92667fbd886be3U, 0x3d5981c83d116842U, 0x3e4a6926bd68d9f1U,
  0xbcf6877ebe1dd708U, 0x3edbade13db39fa3U, 0xbb2727fd3dac931aU, 0x3df8ddf0bdadc623U,
  0x3ddd95d3bd11a8ebU, 0x3e9fd8fabd4917ecU, 0x3d09fd783d0c576bU, 0x3d3fa018bd2ed84fU,
  0x3e2ced39bd373a84U, 0x3d4e1b843dcd1626U, 0xbde787473e757a1fU, 0x3d9c09a23e0ca65dU,
  0x3ca03fbf3a849d2fU, 0x3dba4f1a3d9c26e3U, 0x3ba196483dc2b1bfU, 0x3e6395b53d8c52e4U,
  0x3dbd33b7bdb37a52U, 0x3ea1eff4be00c5f7U, 0xbd3dd8613e942ee7U, 0x3da99433be13be5dU,
  0x3c5095da3b860aabU, 0x3ea58c37be05bdc5U, 0x3bf09e14bb15d6deU, 0x3e2cd99a3daa8ae4U,
  0xbdb55fd93e19b71cU, 0x3e9942bc3ddbeff2U, 0xbccbec3f3e041ffcU, 0x3d3cc31f3c7ae25dU,
  0x3d70efcfbd3c3582U, 0x3dc873763dc60befU, 0x3d67e2f63e3ea390U, 0x3dff3403bda6548aU,
  0x3d1a2e5a3c4105e2U, 0x3e3c79ae3dda50c3U, 0x3e1d2c2b3d99e0c6U, 0x3dd8e53ebdf61378U,
  0xbd129f3e3d566450U, 0x3ce4625a3d132873U, 0x3df47ef0bc6ab212U, 0x3de21c753d36f49fU,
  0x3d9b5263bd042122U, 0x3dc9e02a3dae9d1eU, 0xbe0d18ab3e93687fU, 0x3e9a62e1bd32ac39U,
  0x3d1ddd0fbdc00845U, 0x3e113655bdd02f49U, 0xbe85ee0b3e822344U, 0x3e60d764be671051U,
  0xbe274fbe3cdbe863U, 0xbd3f427cbd599ca8U, 0xbee43fa7bdfa0111U, 0x3e0c2c38bf3a14baU,
  0xbd2e4636bed4ab32U, 0xbde86ff6bec9df3bU, 0xbed005adbcb12f39U, 0x3d826634bf22acb9U,
  0xbe50942abf184498U, 0x3dd4d1a4be81bd00U, 0xbeda7f523db0428aU, 0x3bf4c5cfbf1518d5U,
  0xbe1cfe43bf05f328U, 0xbde84839bf184ff8U, 0xbef3c5f13e2709b1U, 0xbd577176bf09dffdU,
  0xbe3b945fbf19aa70U, 0x3de3e152bf1c58cdU, 0xbeb7ed5ebdc733a8U, 0xbd5c1eccbec86e03U,
  0xbe3e1b05be9fde1eU, 0xbda47b35bedac5a3U, 0xbeda646ebb65819cU, 0x3d495098bee92061U,
  0xbda18b60beb63f6dU, 0x3d3b517dbea26b01U, 0xbf088015bd717a23U, 0xbbc5669abe8b13a9U,
  0x3d288ea9bedf4cf1U, 0x3e314f04bf0055d9U, 0xbec34e9a3d8712ffU, 0x3e33e4f5befafefaU,
  0xbde07bb9bf074d60U, 0xbaa80a92bef9c4b9U, 0xbed2563a3dbee4e9U, 0x3d4716d7be9cf93cU,
  0xbbadb70abf27ad38U, 0xbd449490befcfd83U, 0xbed3f829bd9ca68dU, 0xbcdba03fbe8aa78aU,
  0xbe1492acbf2e2d6fU, 0xbe0731bcbf5a18deU, 0xbebe3573bddebbcfU, 0x3d8bff1fbf0af772U,
  0xbe186192bead549aU, 0x3e090d1abf3f8b4eU, 0xbedaa826bcc31e21U, 0x3db88336bf0d6314U,
  0xbe91f558bf1c6942U, 0xbe050107bf0930b4U, 0xbee985823e398cb9U, 0xbd3f0182bf47f2b4U,
  0xbe8ce4e1bf16d146U, 0x3d266c83bf0a7077U, 0xbf2516fabdc7435fU, 0x3e29c68dbf0c8b01U,
  0xbe62660dbf3198deU, 0x3db2fae1bf27b04dU, 0xbef2335c3d8f3f96U, 0x3d6d1057bf05b1c5U,
  0xbea14776bed54422U, 0x3e1ad741bf1ff1bfU, 0xbee2fbb7bdc07bcbU, 0x3e4b66c0bf5225a7U,
  0x3d65f66bbedc2704U, 0x3e813d56beeccb34U, 0xbe07bbd6bc9f21f7U, 0xbd2eaad8bed01f14U,
  0xbe15d3a2bf0b2985U, 0xbd0dd4b7bf195638U, 0xbea986cc3d31ecbeU, 0xbd1e03b4be8197f5U,
  0x3d73cba5bef298dfU, 0x3cb7bfcdbf1c1914U, 0xbec12581bd2de6abU, 0x3e3277f5bef75b42U,
  0x3df172a6bef7780eU, 0x3e17094dbf1e8b01U, 0xbe7617c83e4f0fb6U, 0xbb0fd0cdbf03359dU,
  0xbe76a077beca5654U, 0x3d14d7bdbefaa88dU, 0x3e0795943dd91777U, 0x3e408455bf058af7U,
  0x3d648a3cbf4a8e9fU, 0xbdc48657bf0a79c6U, 0xbd50a98b3d24fdf0U, 0x3e037c83be043c00U,
  0xbde2c303bf547d71U, 0x3d8bcec8bf307739U, 0x3e739fc9be17d86eU, 0xbde4aef33e32f6d0U,
  0x3e4a07873db4983bU, 0xbd91b9913ea21615U, 0x3c3dc9bfbcadddb4U, 0xbc59ea243e22ff14U,
  0x3bfdf5b53e983d43U, 0xbdbd59323e4be32eU, 0x3d83bd53be5829a6U, 0xbd08f8733e779528U,
  0xbc5fd51c3e205cc5U, 0xbd9a5cf83dc6a5e1U, 0x3e531f80be6def78U, 0xbded22693e2ef0f4U,
  0x3e17e1d33e00692bU, 0xbd98bd1fbd0c9959U, 0xbcb87e8fbd466f3eU, 0xbd6199463e4b89c8U,
  0x3e57694d3ca496bfU, 0x3dc0d9be3e6fbac2U, 0x3dd21c40bde424b9U, 0xbea0419c3c902cd4U,
  0x3d18c5403e5897eaU, 0xbd98b1eabc3a50aaU, 0x3df93fc4beacbe6bU, 0xbe7d5d5d3e26093bU,
  0x3e3f49fe3dacfdf5U, 0xbcd250a43e6bbf67U, 0x3e606293be848d71U, 0xbe7296b43d3a1167U,
  0x3e39b36a3e88c4afU, 0xbe0a9f7e3d11f4edU, 0x3cb2e401be78b322U, 0xbdd244663d8be593U,
  0x3e5674bd3d71d740U, 0xbdfc0f813dde4d71U, 0x3e4f1087be822e9cU, 0xbce686603e5bf49aU,
  0x3e14d84a3e86f41dU, 0xbe737e5f3d92ab07U, 0x3e66bb39bd082a85U, 0xbd46d97f3d88f6c8U,
  0x3def09b83d3ca258U, 0xbe154e8c3e5ca862U, 0x3e3a28b4be30653dU, 0xbdf5a0943dcbe7c9U,
  0x3e13b2d43d17e2eeU, 0x3d716e7b3e20fbecU, 0x3d7e5bafbcf12207U, 0xbe1ba7a2bca54c47U,
  0xbd042ab53dda81d8U, 0x3da0bd923d76e31cU, 0x3da0b93bbe7a7a7dU, 0xbe00c80c3e560f6bU,
  0x3d95f83f3c0521e7U, 0xbbdcdfa63d837d84U, 0x3e4a7bbabe9a88cfU, 0xbe9894723e80d0a4U,
  0x3db85df43e6c5ac5U, 0xbdfc05893dbc4c52U, 0x3e2fbb25be96cf12U, 0xbd8de06a3dbc3556U,
  0xbd9869873d11b4b9U, 0xbc77d0383d263d7dU, 0xbca8fd91be49b9cbU, 0xbe412d3f3d9dcdbbU,
  0x3e4ad2a93e740160U, 0xbe449fd03ddb2457U, 0xbd3813e6be82628bU, 0xbe4d04033e585e15U,
  0xbd1c6ef33ddd04d0U, 0x3d519a2bbbef7b20U, 0x3e3049f5be23a63fU, 0xbd9702a63d563471U,
  0x3de3e51d3e06ea91U, 0xbd08412bbcfd64e1U, 0x3ca5dc4ebdf1abc4U, 0x3ccc56a63e657ee2U,
  0xbcd46a5e3e8e3e37U, 0x3cfbfc073c7e2807U, 0x3dae6d80be4f8732U, 0xbe2a83d7bd8606f3U,
  0x3e7d7df63e13d9d0U, 0x3d261faa3e4dc9f2U, 0x3de7a491bda0e283U, 0xbe7d402f3de152d2U,
  0x3df741ee3ea2b9beU, 0xbdc1bfb43e09b7c3U, 0x3dd2f90bbea469f2U, 0xbe6359383e9117d6U,
  0x3d20c4083e0a4758U, 0xbdd7eeda3e553146U, 0x3e230309be92ae79U, 0xbe7a211a3d722c30U,
  0x3e08a6bc3dec0b75U, 0x3d899c033e004342U, 0xbd726ee8be30f215U, 0x3cc6b3373e2094bcU,
  0x3c771624bd2400dbU, 0x3d692a503e844c9cU, 0x3e6a6872bd5ac591U, 0xbe791db93d94a1e1U,
  0xbd6d217b3e1c5388U, 0xbe108ca53e2a644bU, 0x3e7e70dfbe4bfbeaU, 0xbda994713cdf61a0U,
  0x3e1842c63d525745U, 0xbdbb97f73e19ebf0U, 0x3e812afdbea221feU, 0xbe18fb733d4c90eaU,
  0x3e037b263e671355U, 0xbcae20943d9b0438U, 0x3db2c72ebe87b7cdU, 0xbe7edcc33e8d6fadU,
  0x3dd327973e1f1555U, 0x3c8557983d828014U, 0x3d9ec917be7a6e99U, 0xbe8764ce3d713528U,
  0xbcfbb46f3d2641a7U, 0x3c0788b53e9be050U, 0x3e14cbbdbe7b4be9U, 0xbe99fd03bcf6a0eaU,
  0x3dbf0eea3e3160beU, 0xbda15ca83dc57b4aU, 0xbc0f73afbda3b10bU, 0xbe95f9f63c0a390fU,
  0x3d6ea6aa3dcec81eU, 0xbe389a6b3c94ff81U, 0x3ce47735bce4b42eU, 0xbc40f73f3db15fa5U,
  0x3e1737bd3e1ffd38U, 0xbc83d1823e1042f8U, 0x3d6fc204be0a0de4U, 0xbe706dea3e88042eU,
  0x3d801bc7bc0168dbU, 0x3d487ea13cb4d96bU, 0x3dd7b072be4bd3a4U, 0xbcf9e2aa3d6634f8U,
  0x3dde2fb63e3f32c3U, 0xbe0832443e1cca65U, 0x3e351a8cbe65952bU, 0xbd91801b3e154948U,
  0x3e4452123e755af4U, 0xbdce94503e635413U, 0x3e624013be8b8f9dU, 0xbdf43a163e630d2bU,
  0x3e46daf53e247414U, 0xbe2f86f53e30baf1U, 0x3cad5842be85fff5U, 0xbe2be4973e871060U,
  0x3e5240473e725899U, 0xbe47e22f3cbe462bU, 0xbce04c5a3ca0f48dU, 0xbe4a4ee63c82e843U,
  0x3c18e2013e788f38U, 0xbde16f4f3e1fc3adU, 0x3d792c433bd8bd94U, 0xbe897ee83d6642b5U,
  0x3e51ab7b3cb6b3a7U, 0x3dd403e83d8a35c7U, 0x3cf9b8ffbcf76fcfU, 0xbca047f23d207410U,
  0x3e2eb91f3e3a7b08U, 0x3d3547053da776e7U, 0x3e2389e9bd308227U, 0xbe1418923dd143a1U,
  0xbd38a61b3e8df16aU, 0xbdbdccaf3d564595U, 0x3c9a415fbe940567U, 0x3ccbbdc33c4a983fU,
  0x3e7fafff3e7f8f5cU, 0xbd5676243e3b7552U, 0x3dbf77a2be1e6c79U, 0xbda779413d34f51cU,
  0x3db629f63eae099fU, 0xbd245b793e52c4b2U, 0x3e72b486bdc3a7fcU, 0xbe8c268a3e0bc5e3U,
  0x3e5f26583df7f610U, 0xbe1e63853e9181d3U, 0x3db7c25fbd94aef6U, 0xbdaa12293e7fa097U,
  0x3db4d3de3e722bf1U, 0xbd5e5f233ddc7120U, 0x3cc5feecbd139136U, 0xbd1879d13e82c244U,
  0x3dbf67c23dd04eaaU, 0xbe4065abbc2ceea3U, 0x3e78f2c3bc7b36baU, 0xbe0ddc9d3e2ef2eeU,
  0x3e1d61eb3ccb5f08U, 0xbd20b0d03e6c2215U, 0x3c8fc7e6be84e924U, 0xbeac74913e5dfe6dU,
  0xbc8865373e18af6dU, 0x3ce4d5943c32f378U, 0x3ddf47e6bdc6e475U, 0xbe09ee413e4ec318U,
  0x3e176a9dbca79f8dU, 0x3e38fde53ba26f8aU, 0x3caf1324be628fe4U, 0xbe1e63643e86a187U,
  0xbabb57103ea41de8U, 0xbe1b1ef23d9ad0b4U, 0x3d8233e5be64c342U, 0xbeba23ca3e3bb1e7U,
  0x3e7d87b03dc5f351U, 0xbe6c98d03d96951bU, 0x3c78ddafbe50fef5U, 0xbe98e1943d02dc11U,
  0x3e594d153e115a3eU, 0xbe2cb20c3e29f8a2U, 0x3e2a1ce2be8245d6U, 0xbdb246e23b95ee68U,
  0x3e4ee7723deb8a7bU, 0xbe697f133d2488d2U, 0x3e275783be8acaadU, 0xbe5ce804bbd808c2U,
  0xbd9b9bfd3e2f0f59U, 0xbe21023f3e0cd932U, 0x3bf5b219be5a73c4U, 0xbd9185d43e2d97b4U,
  0x3e510ae93e320e9bU, 0x3d7da1dc3e04690aU, 0x3862e261bdcfd6a4U, 0xbe04fe7c3d795c90U,
  0x3e1a2e123cb88ff1U, 0x3e030ae43dfc6f73U, 0x3ddbbbaabd9681b3U, 0xbe43c4b83debad28U,
  0x3ded72c93d9c0faeU, 0x3bd40c813ea49575U, 0x3e2eb378bd8fc1fbU, 0xbd8918a23d511689U,
  0xbcc9d6f23e691e79U, 0x3dcb62e53e34c810U, 0xbc67d1b5be9ba7beU, 0xbdc6ad9e3e40592cU,
  0x3e0cb8d63d8b1f63U, 0xbde40b9d3d814252U, 0x3e089b25bdc07e4eU, 0xbdcfa3da3e716610U,
  0x3e1b22753e509d75U, 0xbe3ab8333e1687f6U, 0xbc019c10bd8582edU, 0xbe8baf933cf076b3U,
  0xbcba12b03e6a08d9U, 0xbd5424633d9d886bU, 0xba5641a9be1f8943U, 0xbe62dce7bd1490e2U,
  0x3d3da15a3df9fe17U, 0x3d06f8143d42f247U, 0x3ca87f9cbd3eb604U, 0xbe136bec3dfc2138U,
  0xbdb174aa3e968a68U, 0xbe2043a53e117abcU, 0xbced8a00be11fa10U, 0xbe51e0033df93f01U,
  0x3d35d9ad3e29c1c9U, 0x3ce866483e89948aU, 0x3c8b864fbe0efc11U, 0xbda003ca3e3308a7U,
  0x3df37ed33e335c8fU, 0xbcd73f003e6c4e91U, 0xbf1f06a13d8556c9U, 0xbdc90973bf47516dU,
  0xbe46085fbef15497U, 0x3d166ef9be808565U, 0xbf1d36f8bd01929cU, 0x3c1c0787bf4872a9U,
  0xbd9ec6f1be130884U, 0x3ce6d2babe978015U, 0xbf12d3553d81eee3U, 0x3dd03cb3bf2e73f0U,
  0xbd69e2bfbeab1822U, 0xbdb63f93be9eca73U, 0xbe6b061d3e2bb2c5U, 0x3dd22f92beb75962U,
  0xbe21ec0cbe394752U, 0xbccc4589bf0727f4U, 0xbe37b6533d6c95d5U, 0x3d1b8a48be91e98aU,
  0xbd392486be8c5617U, 0xbbe4d66cbeaa9f43U, 0xbeb6971dbcfac25eU, 0x3e19b7f7beaf17cfU,
  0xbccc122fbe707dacU, 0x3d11558fbe9cf7f7U, 0xbe8b5e863dd597f9U, 0xbd1d9ab7bebc2f54U,
  0xbdb4c0babe7baa63U, 0x3dc9b0c2bec98734U, 0xbded3216bd4c489eU, 0xbd4563ddbeccb385U,
  0xbe03158abe3f9c1dU, 0x3ce8be38bf058a11U, 0xbe09714c3e1ff272U, 0x3d02a18bbe0ac2d2U,
  0xbdde8baabf182031U, 0x3cdd5cf4bf23a1d1U, 0xbeffd88d3b8294d9U, 0x3e2675f1be82a442U,
  0xbdc31d05bf121dfcU, 0xbba8d627bf54b1bdU, 0xbecf0fef3debfdaaU, 0x3b4604a4becec31eU,
  0xbe324a08beaf8e7bU, 0x3d815488beba56c9U, 0xbece8e21bd2338aeU, 0x3d4c6d11bf293d3cU,
  0xbe98d209be5a73fbU, 0xbda6f49cbf0a9d97U, 0xbec666883ddc11edU, 0x3e0fd6f5bf0e8b0dU,
  0xbe51f9b5be9e91f9U, 0x3dae4c77beb938c1U, 0xbef3b6b43e163944U, 0x3de9184ebed56256U,
  0xbe44a607bead45baU, 0xbd14fd36bf2bb1d1U, 0xbea4ca4fbd8c76deU, 0xbd9df876bedbd39bU,
  0xbe667ba5bed12146U, 0xbc7edbc0bec65ce5U, 0xbea583413e01d862U, 0xbe018377bf402361U,
  0xbe282c05bec218efU, 0x3e3c0dc7bf14b225U, 0xbe313963bd8f08f2U, 0xbce77849beb66594U,
  0xbe20eb37beae9168U, 0x3dd80de4bf11da3dU, 0xbe66e6b43beee0b3U, 0xbce290dcbec82d97U,
  0x3d8d6240bee4e557U, 0x3b86a98cbeea3d14U, 0xbe258cd23de7273eU, 0x3e312369bf06307aU,
  0xbe3e1058be6f388bU, 0x3d963dbbbf0ecf61U, 0xbe15d9a0bde05ce9U, 0xbc7800dcbe3d7353U,
  0xbe3f9d4abefbf0f7U, 0x3e2e34d4bf00f62eU, 0x3e7b5f17bdfc7daaU, 0xbb1c6f4ebe8eb27cU,
  0x3d604080beebee0eU, 0x3d4b3d82becfbae2U, 0xbe07b5693da54b33U, 0xbd865f9abeb75a83U,
  0xbe0fc087bf4226d4U, 0x3e2c8b15bf056e63U, 0x3ebd9fe03e03d58eU, 0x3e09e94d3f0dd64cU,
  0x3e48ef343e3380e9U, 0x3c6f86ef3e669debU, 0x3e61f420bda92d2fU, 0x3d8dff1d3ec10d93U,
  0x3e24637e3e9c9fbbU, 0x3c9d9e073df20058U, 0x3e7a90fa3dc8d99bU, 0x3d8f2d383edc4f27U,
  0x3e27df1f3e62a384U, 0x3e019fca3e4e9e25U, 0x3e339d2f3d96544eU, 0x3e3895cf3f0a75f3U,
  0x3e205dcf3e219bbfU, 0x3d0272503e1c45eaU, 0x3d0ec021bd15a5b2U, 0x3ced251f3df62f89U,
  0x3d95ae863e8f3a31U, 0x3d51cd173e4071f6U, 0x3d5dbfeabcd05342U, 0x3c2579be3ecba372U,
  0xbdf02bd43d654239U, 0x3e234cdc3e782827U, 0x3e0bfe4e3dfc1e44U, 0xbcbcef3d3ec61060U,
  0x3d39baa73d89595dU, 0x3dbd825d3eea3b6dU, 0x3e34611c3cca1726U, 0x3cfef5c33dfefbe1U,
  0xbdb00f633e96e8bcU, 0x3dc4485d3e6cab3eU, 0x3e368b803dfe95a0U, 0xbd64358b3ecfb1b0U,
  0x3c67f7f33ef79c9dU, 0x3e80b9db3f171f96U, 0x3ed547683cff58aeU, 0xbdd504863eb4c90eU,
  0x3e1828083edf68a0U, 0xbdd509ae3eda875dU, 0x3ed2c546bcbc94f8U, 0x3dd10c733ee32fd4U,
  0x3eabbf513ea56741U, 0x3e49ff423edfc5d0U, 0x3e9b5894bc94e268U, 0x3e0c083a3ed502c9U,
  0x3d034cb43e66d90bU, 0x3cd739fc3ea132c7U, 0x3eac574e3d5f0dd1U, 0x3de684253ed6f138U,
  0xbd2749053c8b48baU, 0xbb071f283ed3a5f2U, 0x3eea59d03cfff3b8U, 0x3e04d1c43ea3cae9U,
  0x3e2db9e93dda6468U, 0x3b9d3f163ec3cfc5U, 0x3e4fc9d3bd87c6f3U, 0x3e1ad15e3f1e8b2cU,
  0x3e10d3633ecb5f0aU, 0x3e2508e63e36b213U, 0x3ce109a7bcde49afU, 0x3db727e03f09be76U,
  0xbcbf09d33e879f24U, 0xbc8ee6c33e81acdcU, 0x3e2244593d9b4b47U, 0x3e41a4ae3ebc0366U,
  0xbe0399983e3b2677U, 0x3e4d6d943e87aa76U, 0x3d9d352a3b40b877U, 0x3d93d8043e1e3200U,
  0xbd698e003e6ee300U, 0xbdba31e23e350ca1U, 0x3d7d4f5d3dc895efU, 0xbc5d35363ec9a4c8U,
  0xbbb8f5c83e6f0014U, 0xbdc5dcfa3eb80f05U, 0x3e75da193cd12119U, 0x3daee0893e81b7deU,
  0xbcc5acc53eb21cb4U, 0xbc3eb26b3f162471U, 0x3dbc41c13df854a1U, 0xbb4485bb3e2d321fU,
  0x3e7445143ee9c902U, 0x3e7e22d03f03af1cU, 0x3eabedcbbdbca6aaU, 0x3dc07f593eeb5f66U,
  0x3eb4c8643f1eca3dU, 0x3e62d5983f061120U, 0x3d659446bd7cdab7U, 0x3e03311f3e2931c8U,
  0x3dc37bfb3c30d003U, 0x3e35b2b4bd9d4ce6U, 0x3e83fda63d805e24U, 0xb95ae8753dc1beadU,
  0x3dd0bb143c09a1aeU, 0x3dd7b591bd981973U, 0xbd2e9b373e4a3f2dU, 0x3d12c3133d782616U,
  0xbd5c3940bcd65828U, 0x3e4b08a4bc189c8cU, 0x3b89c977bc94ce8cU, 0x3e072416bc36b92dU,
  0x3d1dc4253e28573cU, 0x3e35bd4c3c60ff30U, 0x3b2bff07bd9a7989U, 0x3ddb251fbc903fe9U,
  0x3dcb523bbde06b30U, 0x3dadedd43bccc956U, 0x3de48c1a3e56b8caU, 0x3dcd86ea3e3234a7U,
  0x3dc17f3e3dc052b1U, 0x3d9d7f21bd00496eU, 0x3d21b69c3e1d4309U, 0x3e4eadeabdc34a08U,
  0xbdc423f33dfbcdb7U, 0x3e0ab935bd281d38U, 0x3e1d53ca3e35c393U, 0x3e11c9653d1dc698U,
  0xbe1ef2ee3e368b40U, 0x3e52f4f0bda10231U, 0xbe10515ebce55456U, 0x3dd75430bd23d5c7U,
  0xbd025c5e3e11a67aU, 0x3e8ceb183def1539U, 0x3ddc75893e064584U, 0x3e31d9483da06024U,
  0x3d4c1f19bd7a826eU, 0x3eae3bf33e139cb9U, 0x3d86cbca3d962655U, 0xbccbe40a3c0c1bf8U,
  0x3dbc2b4f3e4be7e1U, 0x3e3e39fc3d6f32e2U, 0x3e255a293d96befbU, 0x3e82a5683e41ad63U,
  0xbd81ac353e2c4e6eU, 0x3e33d0763db018deU, 0x3c6aeb073e089daeU, 0x3e5ab59e3e57b68eU,
  0xbd46f0b43ddd9c55U, 0x3d37aac7bd56dfdfU, 0x3e55b6de3d0832c1U, 0xbca7e7123d96a5e5U,
  0x3d2a627a3dac8953U, 0x3d89dc173de99f8aU, 0xbd77c1f8bdab2599U, 0x3e8480663dda02a6U,
  0xbdb8c0393c81c31bU, 0x3e942e4b3db22912U, 0x3dd8ad593d3093deU, 0x3e33a0edbdea9c7aU,
  0x3d7d0d8c3e1b25b3U, 0x3e59803bbd228e93U, 0x3e0bbf3a3e3f65d5U, 0x3e89721cbda20dc0U,
  0xbdb9fcc53cc1d6ffU, 0x3e982f9dbd8112f1U, 0x3d178f7f3dfe3d9cU, 0x3d8998e5bd8d466eU,
  0x3df12a50bcb04b37U, 0xbd89dc02bdda4083U, 0x3e0079b0bd34b6e2U, 0x3d3e64c0bdaa8e9fU,
  0xbdb6eae23db081eeU, 0x3e85e04d3e341d0bU, 0x3d53480f3e1feffbU, 0x3defe96e3e2aceddU,
  0x3d0527083e241b91U, 0x3e5a70213d7901fcU, 0xbe0ffecd3d98aaa4U, 0xbc3a3847bdc1647dU,
  0xbdbb0e8c3e88e258U, 0x3da58ca2bd734997U, 0xbe0d5aa93e771e13U, 0x3e5d6504bda333b5U,
  0xbdff2fdd3d9e0e8aU, 0xbdbe91fd3ce07ad1U, 0x3e56e06fbe52199dU, 0xbea9082b3e0504b6U,
  0x3e8a92023e740a87U, 0xbe8c468b3e57519fU, 0xbd5d4105bd8846e7U, 0xbe85b37b3e771b28U,
  0x3be4b14b3df24fccU, 0xbe7f17f13d425c47U, 0x3e164203be39d1ecU, 0xbdc285823d22eb16U,
  0x3e46b64d3e302a89U, 0x3cae6fd03e7872b2U, 0x3e39d8b1bd8f673fU, 0xbcf0398e3d93c65eU,
  0xbcfde6ca3e43405cU, 0x3ce4766a3e682d9eU, 0x3ddcf8b1bdec46d1U, 0xbdbfa0753bb4c276U,
  0x3d49d4e93d8c4cc4U, 0x3ba0403d3e688d7dU, 0x3e343ea2be4115adU, 0xbe91a6f93e650b07U,
  0x3e00e2d73d3a0da6U, 0x3c9a3b913dc232a7U, 0xbd06c20abdd82507U, 0xbea844d63bce9184U,
  0x3e2e18353e819a0dU, 0x3d5a1b4c3d064cdeU, 0xbcbcc47fbebb326cU, 0xbe13879d3dd24d12U,
  0x3e402f4a3e5317c0U, 0xbe5387223e80c77bU, 0x3e89f087bdd9f5ebU, 0xbe7b00b93d2d46afU,
  0x3e63181a3e4fa3e9U, 0xbe304dfe3e834d92U, 0x3cf7dd02bead03dfU, 0xbd85ce073e8fbf98U,
  0x3d67cb8a3db5d824U, 0xbdaf591f3ddcf952U, 0x3d5f8e39be4c96baU, 0xbd31e2f13de04058U,
  0x3e41a8cc3c1ed800U, 0xbe4ea8973c2c9cbaU, 0x3e996770bb9cce7eU, 0xbddb79da3dd4ebdeU,
  0x3e58e20d3e3b0a8aU, 0xbdba705c3d835153U, 0x3ca679d6bdb873e6U, 0xbe8a5a2a3aa1d3e5U,
  0x3d51c45e3e192c87U, 0x3ae8c3263e863b1fU, 0x3e81b721be9dc44bU, 0xbe2e19d63dc0b982U,
  0x3c755c583d98482cU, 0x3d8b77db3e875217U, 0x3d41806bbe418985U, 0xbe6692843ddfb067U,
  0x3e59bf563e856eaeU, 0xbe2e2de23e6c949eU, 0x3e11b290be849379U, 0xbd9d6d8a3ca91176U,
  0xbda00cdc3d651dd4U, 0xbe2b6edc3df74f44U, 0x3dd7ee66bd5d14d5U, 0xbd4b51f03e0c30c8U,
  0x3e3b2c9d3dcd1c96U, 0xbe82392c3e70cf07U, 0x3dfa61abbe5788d8U, 0xbeb7f5b03e93a031U,
  0xbd51eae93b9ddfedU, 0x3defe0bb3e0e17cfU, 0x3dcf4203be4c0548U, 0xbdf4894c3e546214U,
  0xbd234b0e3e947bfeU, 0xbd3122b33e050969U, 0x3e2063b7be7f7bf9U, 0xbe4ac7e13e758ae8U,
  0xbd947dd53d83244fU, 0xbddc69e23dea2796U, 0x3d8f9757be8948c6U, 0xbe335df43e2275b9U,
  0x3e18c5c63e3d8bc8U, 0x3d31fa863d0d169eU, 0x3d92e99fbebc3b86U, 0xbe2b7261bdf36a9fU,
  0x3e18059f3e992fceU, 0xbd068ff13e13f5ebU, 0xbd12d5193d935c82U, 0x3d7b3aacbebfe3bdU,
  0x3cb72a3cbe087cf0U, 0xbd280a30be32f1caU, 0xbe062ea63e785ba0U, 0xbceddf76be559e30U,
  0xbe070543bda4f26eU, 0x3da09c933d977a70U, 0x3b78b1eebd1109d1U, 0x3ddb5e7dbdc0f503U,
  0x3e04a488bdf46150U, 0xbe0c255bbde75bddU, 0x3d65bbd7bb485492U, 0xbc6a5a2dbe9ab464U,
  0x3e46ead73c0f116dU, 0x3dfed00bbe3a3c48U, 0x3df620333e2b9850U, 0x3e4d0d05be15e3a6U,
  0xbcb9e420be2222ebU, 0x3d1e1a9dbe53c9cbU, 0x3d9649923e4ecab9U, 0x3dee7aeabdb5a414U,
  0x3e28a3153d96e72fU, 0x3e58f08cbd78f240U, 0xbe67e57b3e6785d8U, 0xbcd6f6b1be7efc22U,
  0x3d603784be42d658U, 0x3df2f53cbd0b1edfU, 0x3e1458943e4fa0faU, 0x3d932e103d03f2b7U,
  0x3c5a174ebd4003bcU, 0x3cac2e05bda832b7U, 0xbd43a5543d2e6022U, 0x3dc25b35be8bab61U,
  0xbd9a390fbe6e493aU, 0xbddcf448bed9d36cU, 0xbc69a2213d86ea31U, 0x3dc91f41be6c3077U,
  0xbdda7452bec13867U, 0xbdcce955beddb113U, 0x3d2e77cb3d012b5dU, 0x3e1ad607be16896aU,
  0xbc8664ccbdd593e5U, 0x3e3402a4bddae352U, 0xbc7ad3413e36177bU, 0x3aaa6715bea81131U,
  0xb9b21b2fbe0b7feaU, 0xbe1db5bbbd9a5217U, 0xbdaba8633e24c6f5U, 0xbcf1069cbe176d89U,
  0x3e16564fbdbec17cU, 0x3d966400be37df4fU, 0xbe343eec3cee6737U, 0x3db0522dbe8b4afeU,
  0xbd81cbc6bddd4a39U, 0xbd54486fbed2ab80U, 0x3d8404483e83a80fU, 0xbcdc658bbdf1a100U,
  0xbda2634abe551754U, 0x3ce9b1ccbe77bf54U, 0xbd34e9623de2633bU, 0x3e171ddabe68be86U,
  0xbd34a3debe1fe782U, 0x3e3b5d54bd116247U, 0x3dfc30373d94901bU, 0x3c232230be8c44a0U,
  0x3e1934bcbe8555a7U, 0x3d94fbcabe53d0c5U, 0x3bad17ffbc7e507eU, 0xbd509549be4c6e3aU,
  0x3e8a73f3be3224d3U, 0x3e30e76abe1814adU, 0xbd567dda3e41d292U, 0x3dcdc0a1bdd812e1U,
  0xbdad2d27be2df419U, 0xbce66613bd60b4ceU, 0x3de4d3b83e6cdb7bU, 0x3e73f89bbda88262U,
  0x3e0e7e46bea5839aU, 0x3db3017dbe599083U, 0x3c915689bd62116dU, 0x3e6ec45cbeb60c54U,
  0xbd834a76bf0e4c72U, 0xbe05f316be4ae7b8U, 0xbe8d2dbc3e1cfd41U, 0x3e82b5c7be8cc648U,
  0xbe22cef5bed8f217U, 0x3cfcdd01bf04c569U, 0x3e34f1e2be8d8fd6U, 0xbdca15813e0a06c4U,
  0x3e1a80713e61e3cfU, 0xbd1d10263df18ddaU, 0x3d27f745be9eab88U, 0xbdd69d483e2cccaaU,
  0x3d977b9d3e9fc560U, 0xbdf8cd663dbcbce1U, 0x3e62213ebe4c407dU, 0xbe0acac13d00ab66U,
  0x3d1a95903cec4d36U, 0xbca804123e22e03bU, 0x3e3f0ecfbd38b9a4U, 0xbe47367a3e532727U,
  0x3e05244cbba1f429U, 0xbe29f79abc9894afU, 0x3e33bb6ebe83b32dU, 0xbdb4d9b73cedb99eU,
  0x3e273e533c545c8dU, 0xbbd663ea3e0613f0U, 0x3c88121fbe402059U, 0xbdb057ef3db09bb2U,
  0x3dd804373c6cd40eU, 0x3d91ee453e83fcdeU, 0x3e828f93be812537U, 0xbe6708d43dbe9a85U,
  0x3caeabf83d8ac422U, 0x3dbc53b83e749f60U, 0xbc4b5081bea01604U, 0xbe8cdc6b3dac1129U,
  0x3b0a75ac3e8e59cdU, 0xbcbe42743d91bf0cU, 0x3d7acecfbe7ca019U, 0xbe43a2013dbcef7fU,
  0x3d75f82e3e777adeU, 0xbb7a986f3d914229U, 0x3d2f482cbd2aef8dU, 0xbd8ce57c3dcc267eU,
  0x3e64cdd43e245914U, 0xbe5b6f153d34a2f1U, 0x3d8dfc77be75beaeU, 0xbe4432273bbcaf2aU,
  0x3e36f66c3c0e243aU, 0xbc395c823e3c4815U, 0x3d254051bd4309ceU, 0xbe5b0f5a3dfa157dU,
  0xbd458f343ceda62aU, 0x3de74acdbd21f69dU, 0x3e829f39be091842U, 0xbdd8b95f3e5e635bU,
  0xbd3ad6b9bc05de83U, 0x3c10e54e3dfa6558U, 0x3e4f2c3bbdf8c7d8U, 0xbd8b7b663e2d0355U,
  0x3e6608933db7bd8eU, 0xbdebde9a3e09f85fU, 0x3bf7e71fbe91df58U, 0xbdac9d213de11acaU,
  0x3e3c479e3e71ecf3U, 0xbd1794843eb1cd11U, 0x3de1d114bc342cd6U, 0xbe6e1af03e87789aU,
  0xbd4a51ec3e4b8edeU, 0x3cce73bbbd138b64U, 0xbd630fab3d17e6d7U, 0xbd6db2183ca93536U,
  0x3e3377a43e13baa9U, 0xbe5790d53dcbc22bU, 0x3c2d84583bc8b205U, 0xbd751fbf3d571415U,
  0x3e54008e3dc661fbU, 0x3e134d5c3dc8dd47U, 0x3c93a17bbe915a27U, 0xbe81e32c3d930abaU,
  0x3e3de3d53e7b83ccU, 0x3dd48e993dca88b2U, 0x3e323d9cbe8a2fb4U, 0xbd636e23bd040051U,
  0x3e13ccf23e778886U, 0xbd3e7ba93e271541U, 0x3b47cddabe836f40U, 0x3d06dc593d67dc9dU,
  0xbd1457f33e16ea63U, 0x3b2c3c243e3e7f96U, 0x3d5c5b9cbe1cfe9bU, 0xbe7f6aea3e1ad36dU,
  0x3d8277683e199986U, 0xbd80b8d33e4a011cU, 0x3e6217c0be82fa69U, 0xbe5092373e2d0657U,
  0x3e16712c3dac2725U, 0xbe488c4e3c9cc8ffU, 0xbd89217dbe18d6d6U, 0xbe3c036cbaf1220eU,
  0x3e2803b43ea03461U, 0x3bc4fee93d3a5829U, 0x3d4a0e15bd1ab7b4U, 0xbe7307203c9c4a23U,
  0x3a8f33bebcce1951U, 0xbe0c60a03d56691eU, 0x3d4a05e5be25a3dbU, 0xbdd143b23e600dcaU,
  0x3e4f93103e1a918dU, 0x3dba429abd47f9eeU, 0x3d461464bdd5fe9eU, 0xbd6d5185bd2f7c90U,
  0x3e0d332b3e0297ecU, 0x3db0f46b3d47c693U, 0x3e43cd99be2d878aU, 0xbe7b69a53e65b8c3U,
  0x3e1573283e20bf54U, 0xbdb056f53dabca60U, 0x3debc3acbe3f0846U, 0xbe0cf7a33e5f51dcU,
  0x3dcb1a5e3ce837d7U, 0xbe2336643dbf7797U, 0x3d99bbffbd98f7f0U, 0xbdac7e3a3e54e6c3U,
  0x3e3087d83eaf01a5U, 0xbe674bc13da1303cU, 0x3e8e7a39bea221e3U, 0xbe9db8d23c8c3187U,
  0x3e05de1f3d6b79faU, 0xbd9bbeef3e8bf26bU, 0x3ca7691ebdbefc93U, 0xbe8804c73df59356U,
  0x3e5a51953e76c989U, 0xbc9845903b397995U, 0x3e0d4d72bc78ecdcU, 0xbddcb5c43cad411bU,
  0x3df3edd33da32cbbU, 0xbdae17ed3b30902aU, 0xbb0437c0be125b70U, 0xbdc197193e34b076U,
  0x3e6417933e013759U, 0xbd4f5591bd1553d2U, 0x3e6814f4be4679cfU, 0xbd367545bc9b4e60U,
  0x3e30e7323e113563U, 0x3d642c003c3a4952U, 0x3df737d3be3ae6baU, 0xbe3f772f3c474ab3U,
  0x3e1f8f5f3cdd056cU, 0x3d85ff6c3d358f71U, 0xbce7e32cbe8b8a1bU, 0xbe0e96243e80a6a1U,
  0x3df49e773d097511U, 0x3d80cd1b3e5c0f56U, 0x3e2e7a45be8a77faU, 0xbe81b9f43e7ce392U,
  0x3d84515bbc051208U, 0xbe3fb98cbc522154U, 0x3ded38a0bdafd75cU, 0xbd748b583e0c0dbfU,
  0xbc775d493e70ee01U, 0xbe41a4eb3e472d52U, 0x3e5a96b93af42c6bU, 0xbe8e26cd3e85f43fU,
  0x3bc6bc2b3cc1a980U, 0x3d8084763a886d40U, 0x3e624a7dbe59b336U, 0xbd894eee3dcb2a1fU,
  0x3d8a1b693e7cdccfU, 0xbc891ffb3de9b987U, 0x3e521331be4ddfffU, 0xbd8ab70d3e66f119U,
  0xbd9664493ce0f194U, 0x3db8c6293e4e7b38U, 0x3d372932be43185aU, 0xbda69c133e4d62aeU,
  0x3dc3b15e3e429415U, 0xbe082ef23e6f20d9U, 0x3d91b0bdbe1f0dedU, 0xbdb35afa3e1478bdU,
  0x3cad0d793e9d1eb0U, 0xbd18b5af3e1aeae4U, 0x3e936655bbe1d272U, 0xbca248fc3e67b334U,
  0x3e8123a13cc937aeU, 0xbdcb4e033af8ed08U, 0xbc7d7957bdb70c26U, 0xbe1649893e05de1cU,
  0x3e65c7f83d92887fU, 0x3dd4640abbf3523dU, 0xbd22a098be5c7937U, 0xbd833cd9bd4086caU,
  0x3e04348e39ec5640U, 0xbd88ce743e5aea0dU, 0x3db35edc3dbb6d7fU, 0xbda63b993bee0eb0U,
  0x3ddf90373ce7cea2U, 0x3dc53f9e3e0d80adU, 0xbc1b4129be3048cdU, 0xbe6c4207bd90ae71U,
  0xbbfb668c3d2c4446U, 0x3e0b74763d9388f8U, 0xbb0efc76b9d3c090U, 0x3d79bb3bbe04ebf8U,
  0x3d2073bcbdad1281U, 0xbdaf879b3d97a0c8U, 0x3e494d903d457b12U, 0xbe1915793e6b9f3dU,
  0xbcbe109c3e70945bU, 0xba72ed003e80a6c5U, 0xbca57046be0f5cfaU, 0xbe1e57383e3e56e9U,
  0xbb87aec03e6bf686U, 0xbca3aa40bc839fd6U, 0x3d2960cebd5ef7b6U, 0xbe3630523d55180eU,
  0x3d883aac3e87f294U, 0xbe39e074bd74c402U, 0x3c92eb32be465761U, 0x3c84e29c3d0d4579U,
  0x3e162a5e3e27ddfeU, 0xbe5d0b54bc86cce5U, 0x3d56a24e39a0ae40U, 0xbd140d043d51e448U,
  0xbd5c9ce7bde73792U, 0xbe11ea3a3e1d9df3U, 0x3e3c3b8dbe584fbbU, 0xbe561a18bb5f911eU,
  0xbd63df2a3d177e33U, 0x3d18266c3dbebdd7U, 0x3e1faaa2be2bd187U, 0x3d8de3563df3e564U,
  0x3ce507f73cfef3d7U, 0xbdec30c83d36ca3aU, 0x3ccef0e43d1577d1U, 0xbe6027123c98aa89U,
  0x3e268c103ccac2d2U, 0x3dc157803c0034b1U, 0xbd04ba2abda22f82U, 0xbc9ba3003e30a5b4U,
  0x3e1304383d96b139U, 0xbe163efd3e94c36dU, 0x3e5c6f633ca54b9eU, 0xbd19435dbd5f05edU,
  0x3e2eb2553d9366e5U, 0xbe2360d83da0b241U, 0x3e4537abbe6d1a51U, 0x3b9f1ab13dbc4445U,
  0xbd9e2cea3dbd0463U, 0xbda1f10a3dc09dbcU, 0xbd5056313d873a9bU, 0xbd0c14d4bd03b407U,
  0x3e0f51223e50af69U, 0x3e3f4febbc71687bU, 0x3e0b6579bdf50189U, 0xbe0e5a843e2e816aU,
  0xbdeec94f3e1cfad8U, 0x3d76049f3cd4c436U, 0x3e49a2ecbe5eb1a0U, 0xbe22a83f3deadadaU,
  0xbd8ddbdc3d814862U, 0x3ddee8163c9e0307U, 0x3e08fbbe3c5b3712U, 0xbdcc2f0f3e4bfd90U,
  0xbd3f2fbe3dfc88c5U, 0xbda47d993cefd30fU, 0xbd710464be80dd66U, 0xbe71902c3d1f3f88U,
  0x3c88e88e3d771c17U, 0xba4f48063e8c0eb7U, 0xbf208eb9bd8bb31cU, 0x3e1bea4ebf4be38bU,
  0xbe428d9cbedf0982U, 0xbe1bd54abec3ef45U, 0xbe9e5a9dbce1db2bU, 0x3c9a2812bf3652a7U,
  0xbe812de5bee36e3cU, 0x3e3351b3be396ea6U, 0xbed97e413c14cce2U, 0x3de340e0bebb53d6U,
  0xbd2da993be407c6eU, 0x3d3e6760bea4c0c3U, 0xbe587982be1382c8U, 0x3d32aa3cbecad656U,
  0xbd380199be012205U, 0xbda346f7bee3df78U, 0xbe53b0cf3c8a40aaU, 0x3d0aff34bf020be4U,
  0xbe57da85be80fa4aU, 0xbd8f559fbeb74a78U, 0xbe58ea133d7d2333U, 0x3dcfd8c4bf01e604U,
  0x3c52c65fbe208479U, 0xbc1a3f5bbef5b1adU, 0xbeb410263cab8672U, 0x3e0b1034bdd5472fU,
  0xbd828bd8be30d97eU, 0xbc9012ebbef32267U, 0xbe21ab08bdee9490U, 0xbc5b66e3be931f75U,
  0xbdea1cc1beddcb9eU, 0x3dd9d0a3beb0477eU, 0xbe9fb454bdaf1649U, 0x3c3c06ffbeb980f2U,
  0xbe06b36dbefbdcfeU, 0x3d09315dbee2a186U, 0xbec349e73d3dabbcU, 0xbd1fefc9bec77ee8U,
  0xbdb71c35bf22dab2U, 0x3d894860bf391cf8U, 0xbf05dc34bdef460aU, 0x3dc441cabf24c7e5U,
  0xbe11c509be877262U, 0xbd5296acbec51f8cU, 0xbe824e6eba1ac5aaU, 0xbc92e169bf38035fU,
  0xbde7b6a4bed106cfU, 0x3e0d52acbf2ee4e4U, 0xbf053815bdd1e03fU, 0xbcc24db7bf1fb0a9U,
  0xbe186282be96c218U, 0xbc8f0a19bee258d6U, 0xbf1c7ed4bd966128U, 0x3d795063bf1f8a9aU,
  0xbcba867bbef65273U, 0x3e0c6408bf148485U, 0xbebd70babd9e5252U, 0x3d927ed4bf16ed26U,
  0xbe954a8abebfba6aU, 0x3c85f7d1beb2c88bU, 0xbe68e1833d9104edU, 0x3c5156acbef90888U,
  0xbe3c18c7befa84a1U, 0x3db0036ebeac6ed3U, 0xbdea40f13d80d5e6U, 0xbd57172dbed6bd2fU,
  0x3d891287be9878afU, 0xbd3523bcbefb1aa7U, 0xbe8113093d48c373U, 0x3d0d0af4be39f62aU,
  0xbe07e788be49e1f2U, 0x3e88ab2cbee0bcd5U, 0xbed6f0733ca588deU, 0xbd17b8acbefc99fcU,
  0xbd85d753be3c6dd0U, 0x39ef0d90bec05d88U, 0xbe343c88bdb5cfa0U, 0x3e2074a8beda1c95U,
  0xbe85dba3bf053ca4U, 0x3d544835bf2e7dd1U, 0x3e1b2e6b3d272216U, 0x3ccf4db4bedbd7a4U,
  0xbdf1e119bf0e67f6U, 0xbc6bb4adbec4a21dU, 0xbd16c434bd834a39U, 0x3dfa1ce6be772895U,
  0xbe96b25dbf2c7b4fU, 0x3e773140befbf729U, 0x3eb6a9e3bdae43fbU, 0x3bb6176a3edc235fU,
  0x3d840fff3e0c10bdU, 0x3d984a7e3e2d6995U, 0x3ecb48af3df83c4cU, 0x3d01c1de3efb8595U,
  0x3e4b81ae3bfaf33aU, 0x3e235bbd3d67da1cU, 0x3d7a52abbd58cc56U, 0xbcf5060a3eeeeaa7U,
  0x3e1271a6bb840e2aU, 0x3e8f5ad93b3ce218U, 0x3e6e90673da9c474U, 0xbccf18dd3edf51ebU,
  0x3d06792b3d0f27d9U, 0x3e2039463e57364aU, 0x3e16d571ba26162fU, 0x3e178c913ea43e6aU,
  0x3d0ed7ed3e8e3bcbU, 0x37bad2703e72ce0fU, 0x3c6f77953e02ad8dU, 0xbd2f5ce83e800c37U,
  0xbcbcc870bc50f75eU, 0x3dacf1683e84347fU, 0x3e81e6cebd850adfU, 0xbcbf9b073e3a045cU,
  0x3ccb16c63dbe21e0U, 0x3e16a6fd3e8e2031U, 0x3b591c443cd9e1ecU, 0x3d67191f3df8b7acU,
  0x3dc6c4a83ea4bdc0U, 0x3d4216803e1f671dU, 0x3d09586eba8552c6U, 0x3d8ea6553dda1592U,
  0xbd95ef053e94df83U, 0x3d1dec893e76e433U, 0x3e457929bd481da6U, 0xbce026573e8d41beU,
  0x3c0df7953ebe69e9U, 0x3c267f763ef2970cU, 0x3d54be58bd147b93U, 0x3e3e600f3ece8c0bU,
  0x3d8e91103d8a39ccU, 0x3d9f80aa3ea0c969U, 0x3caea0773e20f7b1U, 0x3dc81bc03e8250d4U,
  0x3e7e7fd63e7b33f0U, 0x3d0af1273e9839fbU, 0x3e7b1c593df50d17U, 0x3bf2f4f73eb2ddb6U,
  0x3d8466bb3d90ddddU, 0x3cfdb2373ea69e78U, 0x3ea23c51bd04c422U, 0x3e3614773eec3243U,
  0xbd2bef4d3e01ce7dU, 0x3e08deed3ed09a7dU, 0x3d9d2d9d3cd063a6U, 0x3e250f383efb470aU,
  0xbc8f5c073e3cfd06U, 0x3e012c163ea8945cU, 0xbc5775e13d791bb2U, 0xbd01ce373e8a7307U,
  0x3bcbf1373e83636bU, 0x3e3182ee3e8bddb0U, 0x3e06110fbd4c5954U, 0x3e459a1abba7c28bU,
  0xbcedbf943e3625b4U, 0x3e21bf78bb835528U, 0x3e8b68793b2f2df9U, 0x3c9d51d73e7644f1U,
  0xbde7c3833d4e46eeU, 0x3e3ac9b23e28ff07U, 0x3e8fe44cbe07232dU, 0xbc4cb0d93e82c4d9U,
  0x3dfd8fe33dedd2ceU, 0x3e08b1453edf0b34U, 0x3e6f40b43db8090fU, 0x3dec8c963ea91dd7U,
  0x3d3bf3d23e9f4a0fU, 0x3e35f98c3f026e19U, 0x3d8137e4bd3d8e99U, 0xbd62e7593eae5676U,
  0xbdc950683f12b37aU, 0x3e6efeb73ec87484U, 0xbddc4a07bd33b315U, 0x3deb67703e0790fdU,
  0x3db67d723f1a9666U, 0xbe68fa983f104628U, 0xbf097fd9bdf152b9U, 0xbcbcb58dbf295c93U,
  0xbe8ba153bec91d28U, 0xbe09848dbe87d122U, 0xbf007615bd5b3129U, 0x3d5aa039bf30bc8eU,
  0xbe4f2d22bebba6eeU, 0xbd89b076bed160f1U, 0xbe5961b53dcfc5c4U, 0x3dd19971bf0e1b06U,
  0xbdd54009bea3eafaU, 0x3d82f963bebb3cbfU, 0xbe994dd53d1b9fc3U, 0x3db3e80ebf14868bU,
  0xbe1ffcc3beb9b6faU, 0xbbfaec50bf12d13bU, 0xbe297424bc5c69feU, 0x3b99e72bbecdf826U,
  0xbd177257be98ab8bU, 0xbdfcb24bbe4da3c7U, 0xbe91f9ac3db579dbU, 0xbe0024cdbeb8bffdU,
  0x3d65b55abe9b7b9cU, 0xbdd563f6bef47101U, 0xbe78e595bc8079dbU, 0x3e1b56f7be33e4d7U,
  0xbe02d042be5a0fd9U, 0x3e36b135be9443ecU, 0xbe9fb25c3e0a59fcU, 0x3e00f0f2be5eddb2U,
  0x3d4542a5bee54ffbU, 0x3c37b1c3be881a50U, 0xbea6e2333d947ffcU, 0x3d9c666fbed5073fU,
  0xbcccfdf7beec6945U, 0xbd0d2ba3bf1bf866U, 0xbebf99f7bd8d905fU, 0xbd0ef1b8beec7eb5U,
  0xbe66cadcbf032945U, 0xbd421ebebf11e026U, 0xbeb142013daa5651U, 0x3e0d15d2be7d073cU,
  0xbd1da71cbeb95c78U, 0xbd44cc51beeb4a28U, 0xbed960a03e091e0cU, 0x3d8e790dbed30045U,
  0xbd57737ebedfc7f5U, 0x3d09d2bfbead5361U, 0xbed842643e1092b3U, 0xbd47bb36bede8d18U,
  0xbd0851e2bf01e2f8U, 0xbd7cdebabeedad14U, 0xbf00a9b23c6ab1e5U, 0x3e314d38bebf2bdcU,
  0xbe107688bee1d636U, 0xbdeba164bf0f5d42U, 0xbee7e8de3d9b096aU, 0x3e133d43beed3fbeU,
  0xbdde78bebec55061U, 0x3de41f84bed2f1f8U, 0xbe4ed77abcea6f8dU, 0x3dae4478bee95376U,
  0x3da66f20becd7a69U, 0xbd41d527be8423d6U, 0xbe4498d2bc540773U, 0xbbd7b4debf033990U,
  0x3d8ca4f3bec8e9b1U, 0x3dea7211be94f394U, 0xbeb22799bdc1003cU, 0x3d89c36ebe0fbb2dU,
  0x3d03f918bec8be77U, 0x3dc96812be690b05U, 0xbe825a2f3c2e0277U, 0xbd991c17bea5df89U,
  0xbd0cbfa4be5d0ecdU, 0x3dc8fd62beca009bU, 0xbea78038bbe3824aU, 0x3e0014dabf002d27U,
  0xbe30fd57bf1aa419U, 0x3dfa9b13becbeb64U, 0xbd675251bd837bb0U, 0xbd88e514befde366U,
  0xbe563846bf250109U, 0xbcfcfa06bf0ecd12U, 0xbe33e4453d981a35U, 0x3db286a3beebf8fdU,
  0xbd628ca4bf090556U, 0x3e8d2a12bf0aa95bU, 0x3ecf87333df49bbdU, 0x3dbb028b3edd2411U,
  0x3e2e81033e3eef20U, 0x3e0b196b3e7cf8c2U, 0x3e4f561e3d73a7f0U, 0x3d84b3f23ea0d1ebU,
  0x3e5ee0fe3e48c3b3U, 0x3ca4b1313d81f4caU, 0x3e610f173d420fc1U, 0x3e4557243e747274U,
  0x3e2a18ca3e22ea02U, 0x3e1165663dcc87a2U, 0x3e835a35bd882d04U, 0x3df2190e3dacdb31U,
  0x3e2b6ef23d996ef9U, 0xbdac2d203e6ab313U, 0xbdcd3a793e273b2fU, 0x3d221a423e551236U,
  0x3d04c653bb8f01b0U, 0x3dd7a78a3d97b206U, 0x3dcd50823dc48c04U, 0xbcf25e663e3cc489U,
  0xbc6d9f923d22ca43U, 0x3e013ea83e7b6d2aU, 0x3e0fbc09bd88af7bU, 0x3e01304e3e1e318fU,
  0x3c2ffd473d80fb43U, 0x3d9717ba3e055122U, 0xbe0398aabde5d18fU, 0xbd395c333d963bfbU,
  0x3ba378b53e0face6U, 0x3e00fb383d17fa4bU, 0xbbdbfb723d6e2611U, 0x3db815703e3c5591U,
  0x3de1dbec3eef4737U, 0x3c1013ad3ed519b4U, 0x3ea5412abad5156bU, 0x3c62af023e09d2fbU,
  0x3e1fad023ea84dafU, 0xbde55e683ee177c1U, 0x3df69f0a3893ae34U, 0x3e3222063e8dcd03U,
  0x3e159c353e844131U, 0xbd8ad1143e25e8f4U, 0x3e5435d53cdff274U, 0x3dde139a3db7a034U,
  0x3e1cee93baf8ed69U, 0x3d888f9b3d85f821U, 0x3d473da43d2d9b59U, 0x3d0d08c43d96fc85U,
  0x3e09f0ad3e106c18U, 0x3e21c5cc3e2bf6f8U, 0x3e86d015bd5bff26U, 0x3e173bff3e87c86cU,
  0xbce7d7eb3e1c2a74U, 0xbd136b493ea69461U, 0x3e74fdd53ca09f94U, 0x3cc4062c3ed39ea7U,
  0x3e6eabc33c6e4968U, 0x3dcd21623e95722cU, 0xbd32b6213d95b43aU, 0x3d0340ee3ea3d7aeU,
  0xbdaf62443e1cae47U, 0x3c9cb0103ca6b646U, 0x3dedeb813d545de0U, 0xbc1678c33e6efbd7U,
  0xbbd6dd423e37d1f2U, 0x3e68ecc73e505aacU, 0xb9abe0ec3dd28f88U, 0xbcb5c52d3dad9b98U,
  0xbe3512163da1024fU, 0x3a5375023e9f1201U, 0x3e0093123c953d1eU, 0x3c1f5988bc3bf6aaU,
  0x3dd617083dc0ba52U, 0xbd91bd5c3daae5a2U, 0x3df76eff3cf6120fU, 0xbab891ef3e631151U,
  0x3d5b93df3dc93ac9U, 0xbe14e1213ec98719U, 0x3ce3967e3df21592U, 0x3e0b1b793d9fbbc4U,
  0x3d46d3fa3ea09cc2U, 0x3e1af6373e3b4a44U, 0x3d97e2d33d215ebfU, 0xbd81abbf3e9def2bU,
  0x3eb6b3563f1d1424U, 0x3e55643e3eb5b08aU, 0x3e795e5c3da8d4d5U, 0x3d84110a3f0975e6U,
  0x3e692d973f0675b0U, 0xbd6ec37a3e6b5a08U, 0x3e815a833d3154ddU, 0xbbc86f193ef22b1aU,
  0xba1cbc263e02e5d9U, 0xbdc557873e76b46eU, 0x3e919e493d550ef3U, 0x3dbf68413f0545dbU,
  0x3d21025f3e215864U, 0x3e571a863d928005U, 0x3ea7d64d3dcbf541U, 0x3dd148f93ef62f8eU,
  0xbda390713e98f48cU, 0x3e12efe43eab1014U, 0x3e106e0a3d07eeb3U, 0x3d82ea2e3ee57a08U,
  0xbdc0dbea3dec4b2aU, 0xbd1260433e161ef8U, 0x3e2e92613b9f3114U, 0x3d77e1153efea2f0U,
  0x3dd5eef23e84d471U, 0xbd9ef38a3eceefb3U, 0x3ede94883e37b719U, 0xbb54e8043ebcf4d0U,
  0x3dc627723ecec502U, 0xbd4c61b83eca9f15U, 0x3d8070623d606fc9U, 0x3d870ae73ea34507U,
  0x3c4137f13eca65d4U, 0x3dbc22e53e37d592U, 0x3e6c6132bd968ac2U, 0xbd56487f3e9a0ab2U,
  0x3d40a4ad3f35db17U, 0x3e56bbed3ef3d706U, 0x3ee3d0fc3d84ad33U, 0x3c02b8243eb9fe52U,
  0x3d9efdb63f0f5f27U, 0x3dbc137b3f13f6eaU, 0x3eb88c323dfa95caU, 0x3d7736213f16c243U,
  0x3e4c5def3eea0d42U, 0x3e4bef5c3edf4f14U, 0x3e8179d1bd95203aU, 0x3d8eb2ea3eef2132U,
  0x3e944a9d3db95187U, 0x3e935c613e97ce35U, 0x3e974071bdaf577dU, 0x3bccbe183ee1c505U,
  0x3d57ea293e9949dcU, 0x3e2ec6c93e5682efU, 0x3f0f8bc6bd8c6862U, 0x3d3d75353ee41884U,
  0x3d35fc0a3e5ce770U, 0x3e3583c23efe8833U, 0x3e6aff983c4ac61eU, 0x3d4851ae3f104f13U,
  0x3e3af6e43e45fcd1U, 0x3dc4384a3edc044dU, 0x3e0f75cebdd1f175U, 0x3ba409b63ee8caaeU,
  0x3db4d7f73f1c65a9U, 0x3dbf6eb33ea5f5eeU, 0x3dced94e3dc672e1U, 0x3db0c8b23ed4a5b2U,
  0xbdb832033ebdef51U, 0x3e29cfaa3ea05bdaU, 0x3e3f72bd3d5c1e3cU, 0xbb2d38d53eb5f11eU,
  0x3d9704053e79ac7dU, 0x3e3644eb3eb57f77U, 0x3eb6ca9abd1c4689U, 0x3d1240033eb7326bU,
  0x3e2f1d343ea7c19aU, 0x3e18c4a73ec61617U, 0xbbd25777bd67e17aU, 0x3e22aecd3ebae37bU,
  0x3dd38e603effeab7U, 0xbc29a62f3f1731c3U, 0x3db266af3c597314U, 0xbc1f92893e9553f1U,
  0xbce0e73e3f45245bU, 0x3db950023f06bdafU, 0x3e6611e13e0e985eU, 0x3dc7feba3ee686e5U,
  0x3e981bc73f6e846aU, 0x3e15cb973f1c7085U, 0x3e0c75e8be14ac51U, 0xbd3fd2d73e2d5da7U,
  0x3e6d97f23d4f31c0U, 0xbc815a1f3dbb9a2cU, 0x3dd3dcac3da1c524U, 0xbc5daef0bcd34346U,
  0x3e43ff413ca4c280U, 0xbd4244e63d8bdb60U, 0x3cb6aba53bb8b13fU, 0xbc0b09e63d870910U,
  0xbd4918393e2b82cbU, 0x3db99cf03e034840U, 0xbd9a72253cdff03bU, 0x3cfb31c03e499170U,
  0xbdd6ff393c1a9cd7U, 0xbd81e4e8bd9d909fU, 0xbd2953e93e303b16U, 0x3db83cefbd51eda6U,
  0x3cf655d33cf01ff8U, 0x3ddd8e5c3e7b5acaU, 0x3e388cc9bd115238U, 0xbd4e37f0bd36a300U,
  0x3dc508e33e460955U, 0x3de10c933daa2362U, 0x3e5c40d43da8302dU, 0x3dcf48b2bc4df8d8U,
  0x3d805f7f3e6cf5cdU, 0x3e0aa16abce7f522U, 0xbd9fc5913d7e841eU, 0x3df1a3893e4f3a65U,
  0x3e51c1083ddc8d5dU, 0x3db209803e7c7adbU, 0xbd7b57d9bde38607U, 0x3d9100fa3d5c3788U,
  0xbd3054bc3ea01a87U, 0x3da032233e8d9221U, 0x39a2bde7bd677e95U, 0xbd9baa723e29e328U,
  0x3d9f4fec3da964d2U, 0xbb9c3efe3e61200aU, 0x3e3d1c1b3d9ff0e3U, 0x3d816ec43e1de254U,
  0x3e06bb033d9b8faeU, 0x3d890b5f3de6c748U, 0x3e49aa56bbe1accfU, 0x3e17cecf3e5d8303U,
  0xbd13d94fbe094d32U, 0x3df6913c3d4ae0f5U, 0x3cce9ff3bd19919eU, 0x3de2f09e3e0bcf10U,
  0x3db214653d86385aU, 0x3e4861e4bd3316e3U, 0x3e4dc6a83d84f93dU, 0x3d26aa6a3dbf0446U,
  0x3e03f5953d53b6a6U, 0x3d23cab03b892b00U, 0x3db9a6eb3d8bdceeU, 0x3cacc66c3d2ca003U,
  0x3cadafad3d5f036eU, 0x3d3359683db6b78dU, 0x3cf38e1dbd6f70dcU, 0x3e61e89c3e1214ecU,
  0x3e32ebf5bc5d14f9U, 0xbd9e9f07bde815baU, 0xbc2b8c7dbca9a54eU, 0xbd7717283cc178ceU,
  0xbc2fb1ddbd82a60aU, 0x3deaa3793d76310cU, 0xbd92797b3cddc0dcU, 0x3e07eb413e014caaU,
  0xbdfa015fbcde7a25U, 0x3e397c423e157c46U, 0x3d9ff86a3dee48c8U, 0x3c09acd63d9911b3U,
  0x3e3152263e30f729U, 0x3d71679fbd0dd612U, 0x3e51c5a2be09238eU, 0x3cdfd5923e3f1b6dU,
  0x3e3fee4a3bdb2d35U, 0x3d4428c93bb310e1U, 0xbccd565e3c6e6102U, 0xbdba4d923e896138U,
  0x3c0c35b83d915932U, 0x3d9328d83d9f7167U, 0x3d8948a0bd6bf250U, 0x3ddda43a3e207d68U,
  0x3da8c7893eb5b9b3U, 0x3e5f67283ede15ffU, 0xbe29e4983e8055dcU, 0x3e8087d0bdc59429U,
  0x3d93f142bcc54a5dU, 0x3e12f013bdd6ded2U, 0x3e26b9733d6cc993U, 0x3d916e83bcf2ead1U,
  0xbdd53cd53e0a399aU, 0x3e519a69bd701a1bU, 0x3e0f653f3c223b15U, 0x3ea2748b3e20ed17U,
  0x3dd81f693c252899U, 0x3e108054bdc47299U, 0x3d94fec83de29d26U, 0x3e7e60dabbbb7689U,
  0xbdbefe34bdc5a452U, 0x3e0151b33e1d174bU, 0xbdc9d1503c0572e7U, 0x3e4178263e3682d2U,
  0xbe0e9bd93dbf332bU, 0x3e5b220abca7dba5U, 0xbd1df0483d505bd0U, 0x3dfb97103e23328bU,
  0x3d19db3ebda62d6dU, 0xbd9c14593c9e3f2aU, 0xbdad6f163e59d6b6U, 0x3e06b226bc970e7eU,
  0xbd9c981c3e04712eU, 0x3d7d3bd5bdd90887U, 0x3e000e803dd89e84U, 0x3e8da6d63d2c7d8dU,
  0x3d4ed548bd5b2449U, 0x3ea40340bc407ce1U, 0x3d61db613e6e973aU, 0x3e08912dbc4c8c8aU,
  0x3d42757c3b947699U, 0x3ddd07113dce93fdU, 0xbdbdf3063e5cc3b9U, 0x3e08d0ac3e2ddc5aU,
  0x3d96e1cebe2da57bU, 0x3ec3c0d6bd702ae8U, 0x3e4a85543e90595dU, 0x3e4574813e18edb6U,
  0x3e024b08bd915f8fU, 0x3eb49e5f3e0bf475U, 0x3df983a3b9cb918cU, 0x3df2de11bd9f4772U,
  0xbd10f3743e0d85e4U, 0x3d2212623e559059U, 0x3e45c2023dcffed9U, 0x3d18c3a93e10e1a7U,
  0x3df289193d230a74U, 0x3e92d5dd3c99ab66U, 0x3b230fda3d0aa004U, 0x3e8ba18f3dffcdebU,
  0x3d67b319be002797U, 0x3daef133bdba86f2U, 0x3cacc1993db930f2U, 0x3ddd1615bdea03adU,
  0x3e370e103cf23d13U, 0x3d7c5f20bd8d6014U, 0x3d89d3d43c9cf1baU, 0x3e50d89e3d8a0029U,
  0x3de222a83d314707U, 0x3dd3b704bbc72269U, 0x3d356b073e391126U, 0x3e4574ec3d14e238U,
  0x3d7a216bbdc5752fU, 0x3e516975bba22c59U, 0x3d81e71b3dec3779U, 0x3e8b1ae83cc95e5bU,
  0xbc0a7111bd3fca73U, 0xbd09ea7cbc5e0e34U, 0x3ca6919b3e2b145bU, 0x3d83c4273e03c727U,
  0x3d3738f5bd83e667U, 0xbcd150043dd77253U, 0xbde4084f3c6f144bU, 0x3d405e30bc315a19U,
  0x3bceb9e03e3386a7U, 0x3e9566203e20371bU, 0xbbb8c61bbc0fcda1U, 0x3e63ec31bd5c726aU,
  0x3d33cdd13c97ad0cU, 0x3d5dec67bd9f248dU, 0x3a23c0c83da641daU, 0x3e868767be6d2b45U,
  0xbe78f9aabd88b07fU, 0x3d25bf2bbe4360f1U, 0x3e9b5b84bcd2a521U, 0xbd18cd393f338e07U,
  0x3cd678723e4c7ac1U, 0x3e1cb8813e9d88beU, 0x3ec234a23e16678fU, 0x3e4687413f104581U,
  0x3e45b8323e7cd744U, 0x3d76db80bc65f808U, 0x3eb9c1bc3e121983U, 0xbd176efd3f19b4aaU,
  0xbc95a69b3e86866eU, 0x3d4493d63e39d583U, 0x3e9a0ac4bd09bc18U, 0xbcca09253eaf2a98U,
  0x3d1160fb3df079a6U, 0xbd67755a3ea6d1baU, 0x3e19e2213de21eb2U, 0xbccb37df3e0c173eU,
  0xbdf79f933eba20bdU, 0xbbff8a9c3eb75d68U, 0x3dd15522bd158699U, 0x3dec188f3eb18381U,
  0xbdb5e7333dbed795U, 0xbc7593823ed0d371U, 0x3e9c6aedbd0325cbU, 0x3e0b40613ebf9063U,
  0xbdc3d5953e87955fU, 0x3cf574743ecdd4d7U, 0xbcb04909bdcd64eeU, 0x3d4e7bb43e8e2f23U,
  0x39d74c8b3efff168U, 0x3e2f1b4d3eae008bU, 0xbca17d023cf83710U, 0x3c8b73533ebfaf43U,
  0xbd6b80343eefe3bfU, 0x3e57240b3eefcebaU, 0x3ec22ba9bdb2135fU, 0x3d915c973ed74c3fU,
  0x3e15e2203efaf1c0U, 0x3d98ead43eab791fU, 0x3e5deadb3df58903U, 0x3d1e57fa3e946529U,
  0x3e8372ce3dff4ff0U, 0xbccdab5a3e59d54eU, 0x3e0375023e14b879U, 0x3e3141873eb0d93cU,
  0x3e939e943d607ac8U, 0x3e7b0b993e144aa9U, 0x3e0ae4073db26073U, 0x3d8c79523ef9208cU,
  0x3de66ff33da47cbbU, 0x3e6840743df8faf8U, 0x3ec7a4ea3d552f3aU, 0x3e2705d93f0887b4U,
  0xbd2afb5b3dac9accU, 0x3e7331c03eb88f6eU, 0x3e0a4ac6bdd6da62U, 0x3ddc4e3b3ef2b1b2U,
  0x3e4f58ab3e76b81fU, 0xbcd4bc083e9dbd3cU, 0x3d78534ebdd70344U, 0x3e1a64233f01e218U,
  0xbd117b723ecb5d2eU, 0x3d28f18d3e233578U, 0x3e0cd8c6bda3c7feU, 0xbcf3e5b33e9a4f40U,
  0x3dcffb333e227f28U, 0x3c50bc483e9d111dU, 0x3e91c4dd3d028ff3U, 0xbd17ef243e6ea06fU,
  0xbdfed06a3eaa7e6cU, 0x3dcc2d9a3e294778U, 0x3ea036a53deb30f1U, 0x3e3315e13e6b3260U,
  0x3d67fe123ed34039U, 0xbd8993993e8fe9c2U, 0x3e09aac93d9d1fd5U, 0x3cab8fea3edc656bU,
  0xbd134ab23f0260bdU, 0x3ce1dc5b3f10b6cfU, 0x3e2576f33cb13c9bU, 0x3d80f5813ef3f4c0U,
  0x3e7d7cfa3ef5cabbU, 0x3d349d653f038b87U, 0x3d216165bcc10f55U, 0xbc29bbff3e58d99fU,
  0x3e9693a23f468e5aU, 0x3d584fe93f302af9U, 0x3e166dee3d7981e1U, 0xbcf707fb3f0db426U,
  0x3d8b712e3e693a67U, 0xbe0564533d33f849U, 0x3dd8e1b3ba6e7569U, 0x3c2cd0d73e52cb79U,
  0x3d017eee3d2fd8bbU, 0xbbb5964abd590cafU, 0x3e86355a3d570d09U, 0x3d15e7c23ea16128U,
  0x3de3328d3e05f131U, 0x3e00816b3ce940a6U, 0x3e3171793e23ec58U, 0x3def5f273e47c50fU,
  0xbd812d6f3e0cf0f3U, 0x3d3413a33e2f77b3U, 0xbc675ac03c9b1d93U, 0x3e0046533d8a423fU,
  0x3df892333e79b52cU, 0xbdd2b1f03e6d5559U, 0x3e2ad7803d3dbefaU, 0x3de1ac4c3e7fe8efU,
  0xbd3550113d04e1adU, 0xbc8586d33e7ae648U, 0x3d82ccd73ddb9d5bU, 0x3d8406f73dfe4980U,
  0xbd1890c93d77b172U, 0xbd622df93e204deaU, 0x3ccc13853d4b27e9U, 0x3e081cca3c1005e3U,
  0x3d3579d83e662b38U, 0xbd824e34bc81aff4U, 0x3e035fe53c26bc6cU, 0xbae9c92e3e60964dU,
  0x3e023fbb3ef7f2daU, 0xbd51ec373ebdaf94U, 0x3e4decd03db21039U, 0x3bc3c205bd0eeb6bU,
  0xbc0594063e0ef61bU, 0x3c2b945b3e3b82eeU, 0x3d0fda00bd5631a3U, 0x3d865b3f3e29205dU,
  0x3ea06e883e1a6c48U, 0x3d36dd21bd5dcf3fU, 0xbd935e143d341541U, 0xbd3efcbb3ea40810U,
  0x3e2d4edbbe3aba11U, 0x3e81e1c7be1ef579U, 0x3e59d8063df11c17U, 0xbd2406f13e3fb474U,
  0xbd178e313d9dc7d0U, 0x3e1a4d913e6f6a79U, 0x3dc5a206bc81282aU, 0x3df8f4633e069742U,
  0xbd00451c3de76b43U, 0x3e0ee2233de4bea7U, 0x3dd8673cbd72e4b1U, 0xbbf2aefd3e6fe84dU,
  0x3cb0f2193b317604U, 0x3debb3533e64056aU, 0xbd9c1e6c3e00ea7eU, 0x3dddecc33eab79f1U,
  0x3df61fc53e85352aU, 0xbd9713b4bd0e4a3fU, 0x3e282f6e3e223461U, 0x3daba1da3dc04486U,
  0x3d24789b3e30942bU, 0xbd060ca7bd6d26f9U, 0xbdfa2aea3d15c658U, 0x3dbb98463e5d2286U,
  0xbd3079b53e452f02U, 0x3c97f8613cdc9e97U, 0x3df6764a3decc744U, 0x3dacd6863deb9552U,
  0x3db924253d8f4c95U, 0x3cb490c43e1b2f54U, 0xbda7aa413d924ce2U, 0x3e1ed87e3e55ffa6U,
  0x3dcf17b83e91159bU, 0x3dca2b5f3ecd4af4U, 0xbca7df97bda8dfe5U, 0x3e059e4a3e9ce2d5U,
  0x3e225e223f03a9c5U, 0x3da135173ec65eb5U, 0x3e7cfa96be02df07U, 0x3cf2c77b3e932ebaU,
  0x3e9600ec3eea6760U, 0x3d1691343f0f2ebfU, 0xbe0493f03d9aa6c0U, 0x3ddae9f8bd83fe16U,
  0x3dc7edb8be35dfa4U, 0x3e0fb6623e07ce4dU, 0xbd4b3da73e4b6c49U, 0x3e262a0ebe3146daU,
  0x3dd8ef98bd8d8fafU, 0x3e41d4733d1af85dU, 0x3da270913e7ea62eU, 0x3e586309bbde8583U,
  0x3d0ab6443e141fd2U, 0x3dde45c23e34554eU, 0x3dd8667e3e83a026U, 0x3ea19a38bcd6bbedU,
  0x3db32cc9be04943fU, 0x3dde18e0bb948c45U, 0xbb34a70a3e40fd42U, 0x3e6d77aabbb6d9edU,
  0x3d80fb103d6d329fU, 0x3eab95223e0f8779U, 0x3de878723e0e8510U, 0x3e032aa8bdcdd7a8U,
  0x3de4bdda3bb9afe1U, 0x3dfbdb6dbe041df1U, 0x3db110383e8244d9U, 0x3de68073bd5d7eddU,
  0xbda0612dbcdf417bU, 0x3e8a6f41bde0a926U, 0x3df9ee533e99b0c5U, 0x3e86e18cbcd77e57U,
  0x3d50dc11be131e0dU, 0x3da15138bddda3c4U, 0x3e2fdea53df70e40U, 0x3e7a0a4dbddf287fU,
  0xbdaf2169be747829U, 0x3e7aa9f9bdee5d1cU, 0xbd09a0e33d8bd94fU, 0x3db0f3713e26b8eaU,
  0x3be04d38bdc514bfU, 0x3e26b9d2bdb586e7U, 0xbcd15b453e8d4d87U, 0x3e54eacfbded09deU,
  0x3e01d9413de06d4fU, 0x3dd88532bc385320U, 0x3c7b39f43e6a1a14U, 0x3e6b04b6bbaba91eU,
  0xbd62becd3e124881U, 0x3e628c6a3dce3940U, 0xbd4cb6693d6dfeefU, 0x3cd2d5513d9c70f8U,
  0x3decc8293dcf5fe3U, 0x3e52e788bd6778a8U, 0x3e1378933e927d6bU, 0x3d8f24fcbd8d8511U,
  0x3d562382be093fa1U, 0x3cebe6ecbe2b2368U, 0xbd3f8daf3e4f585bU, 0x3dc22b923d76c6bcU,
  0x3e08e993be35750fU, 0x3e9c33ac3c066a95U, 0xbdd468363e736b01U, 0x3e5382b1bd911eabU,
  0x3d9ba00ebdfb0886U, 0x3d81a41b3e1e21e3U, 0x3d1396773dfa8d74U, 0x3c90046c3d031e89U,
  0x3dd09a7fbd8c8e60U, 0x3e943493bdde92daU, 0x3c7d29913e067360U, 0x3eac3937bdba5e86U,
  0x3d4b42febca2b606U, 0x3e3cc447bdf62575U, 0xbc16810b3df8a66fU, 0x3e9d467e3ca95c90U,
  0x3d84e6c8bd9848f7U, 0x3e82b3013dd01890U, 0x3dddd9a33dd93f16U, 0x3e8d5851bdd09d40U,
  0x3e10b1d2bdbee370U, 0x3e99ffa6bd962f1bU, 0xbb0801f23d96f218U, 0x3e56a03abe584441U,
  0xbbd28245be37698cU, 0x3cbd0ecebd899671U, 0xbe9bf9ca3e07d977U, 0x3ec5a84ebe6b894dU,
  0xbe701c13be06ced8U, 0x3c8cd967bdf9062cU, 0x3ef0d7c03dd24efbU, 0xbb58dc8e3f13a6f9U,
  0x3e4666263eacc5f6U, 0x3dbc79d13ed823edU, 0x3e1c4987bd9afbbeU, 0x3e2bf3db3f0edcabU,
  0x3e8896c03eb467c6U, 0x3cd8e8b03c0ded7fU, 0x3e5fa0e43dd22665U, 0x3cc7d25d3eb579f4U,
  0xbc8ab7fe3de21762U, 0x3cb2deb23d93d6b5U, 0x3e0158333b907a3dU, 0x3dcc82f13ec5946bU,
  0xbd065c363d98328dU, 0xbb644bd43e5f33a1U, 0x3db40e743c838993U, 0xbcb45c093ebc9cffU,
  0xbdb45cd13dedff98U, 0x3e239dc83dfb0200U, 0x3e7187e73daee6edU, 0x3dc097983ee03eabU,
  0x3dfb7e783eaf0976U, 0xbd71e1c13eccbf12U, 0x3e2f847fbda709dfU, 0x3d25190d3e9509fcU,
  0x3da8a9023e8d4294U, 0x3dde66383e94bab8U, 0x3e48ddb43d9244e2U, 0x3c19f8073ecd0e52U,
  0xbdaaf5d13ea4dc92U, 0x3c81a3533ece31feU, 0x3e0d62c03dd889cdU, 0xbd495a1b3eb8590dU,
  0x3e5858b73f144052U, 0x3e8b33753ebcf84eU, 0x3edce1733d8c34adU, 0x3e149ca83e88cc71U,
  0x3dd585083f0eb742U, 0x3e0abb953ee2cb55U, 0x3e8f768dbd467e14U, 0x3db7d7ed3ec83370U,
  0x3d9a01383ec962f4U, 0x3e641d753e74b4d8U, 0x3e16d5d43d8ae15fU, 0x3dc6a5003ea0cee5U,
  0x3d99f6143cb3bc26U, 0x3d0fa6213e1b32c7U, 0x3db17a24bd6e2ce2U, 0xbb9460aa3ed4504fU,
  0x3dca7a123e424ab3U, 0xbb7afe633ebc39d8U, 0x3ee1c3d8bd41f07eU, 0xbcb851123f18d536U,
  0x3e4598843e0af4fcU, 0x3d3059c73e6c5536U, 0x3e8ce17fbd715e09U, 0x3e2bd80d3e9e5ee5U,
  0x3e3c861a3e69bb6aU, 0x3dc157de3e0a8782U, 0x3e5f8d763db6eebaU, 0x3e0ff3b63eb78d30U,
  0xbdf6c8c93eb545f6U, 0x3e08d8e43e4c9fb4U, 0x3e3b06473e000e9bU, 0xbc0f20c33eb06102U,
  0xbe05f47d3ec3a984U, 0x3e6bfcf23e974a82U, 0x3daaffe43c2d3618U, 0x3d1c4f2b3e96aeebU,
  0x3d1269f03e3e869fU, 0x3d24927c3e6d0cffU, 0x3d9cd41c3d84d4c4U, 0x3e2b23183e24f7f1U,
  0x3e1e27413e5535b7U, 0x3e4b12de3e9011e8U, 0x3da1163f39fbda05U, 0x3db2a4e03ec88926U,
  0xbbd786ee3f074d2fU, 0x3e27c3043eb81f52U, 0x3c1f4a99bcffabd4U, 0xbdeed6933e93504dU,
  0x3e81017e3f3c6e00U, 0x3e2c4b203f082636U, 0x3e528005bdb19cd0U, 0xbaf6f4003e5b1c88U,
  0x3e3f14ac3f14b5a4U, 0x3e70ade03f12dc46U, 0x3e9528373d7046ccU, 0x3e15f3733edef267U,
  0x3e3393cf3ecb32cfU, 0x3df459f63e5e34c8U, 0x3e2df85dbd246d92U, 0x3be0c87c3eb1b8b3U,
  0x3e3bf3233e550e69U, 0x3d139147bd12f2c3U, 0x3e108d6e3d76496fU, 0x3df285383e90dc5aU,
  0x3e436a5e3e771a53U, 0xbcd3c91f3d7e4167U, 0x3e3991993dbb5700U, 0x3bd23a503e980395U,
  0x3e3645973e5587e8U, 0xbe037b2f3e030f0fU, 0x3e6917b63abb3ba4U, 0x3ccfb8b63dbbb31bU,
  0x3d01db283e6ff0d8U, 0xbdd545513dbe1a69U, 0x3df2797ebcf7f817U, 0x3d23981b3dcd15f4U,
  0x3d3cc1b03e05b48dU, 0xbe1b31e73e869d0bU, 0x3e1987cd3c108d22U, 0x3c8fe0c63da75e90U,
  0xbd9a039ebb620e89U, 0x3dcba1a73e23e300U, 0xbdda6084bdbb1d93U, 0x3da90ace3e8aced9U,
  0xbd9e1cea3e7995b8U, 0x3da4eb223e1b4e8eU, 0x3dd0292f3df7076fU, 0x3e03ae3b3e62c505U,
  0x3dcb21e13ed076a5U, 0x3d5af54f3e957135U, 0x3e9603f63cb72274U, 0x3b8125543ea404d9U,
  0xbc9823af3ef8199fU, 0x3d1571c23ef4e00cU, 0x3e373531bd8cf9a0U, 0x3d54a26f3e8eceddU,
  0x3e042c0e3dea005fU, 0xbce6b2ce3e92ebb4U, 0xbba699443e1e1403U, 0x3e487d083ec6a521U,
  0x3d302d193c377f8bU, 0x3e82d2fa3da7210bU, 0x3e3424873d2d0db1U, 0x3e163dca3e9dfa4eU,
  0x3e19ef783e33772dU, 0x3e23d2573e94d9b0U, 0x3ec362f2bd0864d3U, 0x3e0f0f9f3ec20929U,
  0xbd4c4fd23dcde78fU, 0x3e41ac1a3e948543U, 0x3de41fab3daa5a2bU, 0x3d20e03f3e8e5a1fU,
  0x3d6f26093e430d23U, 0x3d8cc8153eb9a11eU, 0x3e6d766d3d91fb94U, 0xbb2a17593eef7179U,
  0x3c72da253ebf960dU, 0x3e36667c3e88c1ecU, 0x3e2fd55abd53326cU, 0x3d2ca35c3e393133U,
  0x3d8e39bb3e1de993U, 0x3e43f36e3e50a41bU, 0x3e4df6453d3f2b54U, 0x3d17618c3e9ada77U,
  0xbdc3f9633e459373U, 0x3dc25f313ea7de99U, 0x3e5e00ea3d765507U, 0x3e17d0273eaf8f9bU,
  0xbd471c733e9ab62bU, 0xbdcd03173e23c498U, 0x3c340f363df8da04U, 0xbcf5c2313e90e816U,
  0x3d8014a53e9c2b1dU, 0x3d6dcd9c3f01d2ffU, 0xbd841001bda8395fU, 0x3d9b47ac3e5210a0U,
  0x3b4772cc3f0dd771U, 0x3d79a8f93e83fbf7U, 0x3eb67e783e05705bU, 0xbd9fe4cf3eae112bU,
  0x3e0fd8e93f21c35eU, 0xbdac90a43f28c9bcU, 0xbf10ec313d60400bU, 0x3deef61bbf2f7bc7U,
  0xbe91ff77bee7118aU, 0x3d52a151be985bf1U, 0xbf0055263dab04f7U, 0x3d28c404bf14d233U,
  0xbe18706abf0f4562U, 0x3e40b567bef1cbefU, 0xbebbeca33c942a84U, 0x3d4d18fcbef73d75U,
  0x3cfc4c5cbef7df2eU, 0xbd8e7c02bebb7958U, 0xbec66eaa3d6ee655U, 0xbdc131cdbf0d40d5U,
  0xbdb2cbafbeeaf9bfU, 0x3c194bd7beb9a7ffU, 0xbeae5ecc3d0c23cdU, 0x3dcef7bcbf0f56ffU,
  0xbe19d68bbeb2640dU, 0x3de16cd3be5768dbU, 0xbed250c43c605d46U, 0x3d9c03f7bea0b46eU,
  0x3dd068d1bed5eb8dU, 0x3ca1ea8fbf104754U, 0xbece4e983c07f80dU, 0x3cac0765be6988d2U,
  0xbd7ededabe8bcd63U, 0x3d3a416ebf19a181U, 0xbe9348cfbda08554U, 0x3d81d949bec3aa7dU,
  0x3da67349be9f58beU, 0x3cabd912bf081be9U, 0xbe76df5d3cf30670U, 0xbd59d9c5bec65b88U,
  0xbe17af89bf55f0f5U, 0x3d29c25dbf1641b6U, 0xbf026c363d24fa71U, 0x3ddc0f82bf0c5449U,
  0xbe176efbbf3d11a0U, 0xbcc93268bf2e1f50U, 0xbee16330bd13dcd2U, 0x3e2e924bbf07afe0U,
  0xbdc411bbbec39924U, 0xbb39903cbee82ef3U, 0xbe9eb9c43da55c89U, 0x3e375771beefed38U,
  0xbdc38eaabeebe49fU, 0x3cea8a7dbf0149f6U, 0xbea8cd5a3c91224fU, 0x3cdd059bbf1d70a3U,
  0xbd8b72d9bf13d1a8U, 0xbc8c769cbef48501U, 0xbeb686f3bd7ee35aU, 0x3dc621f9bf1a3f7bU,
  0xbbff9685bedc58ebU, 0x3d8d8b86bf293d53U, 0xbee9ea44bd35b387U, 0xbd60fea4bef43d79U,
  0xbe49c60ebed14cbfU, 0x3e08ab0dbf082190U, 0xbec84dab3e0f83a5U, 0x3daa35d7bf0a1f0fU,
  0xbe5c6b83beec9f2bU, 0x3e0ed15dbf20d3b5U, 0xbeb7cb45bddf9f5aU, 0x3d7d13c9bea6dc8bU,
  0xbdcd773dbeee8154U, 0x3da34509be90876dU, 0xbe4967cd3cb7c493U, 0x3e1d8206bec09f89U,
  0xbc74bc46beb313e8U, 0x3e707bbfbeffa6baU, 0xbe48cff43a399bc3U, 0x3de3bc1cbf0e9cfcU,
  0xbdd051b1bef3918cU, 0xbd3c47c6bf0bf001U, 0xbecf68e1bca12a35U, 0x3e053b26bf05a6d5U,
  0x3d20945bbeb23bcbU, 0xbc31d910bf08f023U, 0xbc2368abbd7d48a4U, 0x3c184a04bf03c8d7U,
  0x3ce6d5eebf30fc85U, 0x3cc5b3cdbeac324cU, 0xbe877d1dba0e4fb0U, 0x3d2892a2bebb9c66U,
  0xbe28433cbf52b9f1U, 0x3d0b390ebf32fb99U, 0x3dd2508fbd7d1428U, 0xbdea579d3e30b699U,
  0x3ca5da2b3ea22e72U, 0x3cb59c763e50d1efU, 0x3e2bbde4bcf379a3U, 0xbe2430563e066396U,
  0x3e47e2673dde397dU, 0x3da2b5773e0bdfe2U, 0x3dd6c4bebe34d6b9U, 0xbe5d018cbc62dd5bU,
  0x3e49e61cbd0c43d2U, 0xbc51c3c63e0272e7U, 0x3e5d587dbe2d8503U, 0xbd06ed4ebd0c3f8dU,
  0x3e34727c3e4f5e8fU, 0x3aaf55303e5b2470U, 0x3e78bf5cbd36b60dU, 0xbe759e563d2f6e7fU,
  0x3d90985c3d80a5c7U, 0x3d7ecb38bd1755d6U, 0x3db8f857bd8b65e8U, 0xbea09ce03e46b033U,
  0x3cce1f903c420ebdU, 0x3d71b45abd1573d7U, 0x3dc363fcbe7c1f00U, 0xbdee987c3d96d7ebU,
  0x3d8b34b93e21ab15U, 0xbd4eacc63dec20deU, 0x3e03372cbe9ad710U, 0xbd9c88203d46a524U,
  0xbd09a95d3dcba975U, 0xbe1670f03e8ee1e8U, 0xbc3f32eebe338572U, 0xbe1cd07a3d6abc0cU,
  0xbc539ba53e8de444U, 0xbcafbcf33b9dc2f8U, 0x3d346f61bd55e122U, 0xbe387c9c3e0e4637U,
  0x3cd8cfde3d917beaU, 0xbb6adff73e950cabU, 0xbc4bbc47be859df1U, 0x3c3dbbbc3e7aa295U,
  0x3dc3c2bdbca93398U, 0xbe63cf53bc8e50a4U, 0x3e63a5263c308fe1U, 0xbd5f25fa3ceb8f03U,
  0x3dcef7413b3bbbd1U, 0xbe05d26d3e14b0bcU, 0x3d1390dc3c2eab36U, 0xbddf31193e8eb81bU,
  0x3d6353bd3e269fb5U, 0xbd824643bcaea24cU, 0x3e0d0975bdab7d69U, 0xbdf9189d3e0041b6U,
  0x3d8ed8dd3e1131eaU, 0xbce3d4e53e02f5b8U, 0xbd437a05be368e33U, 0xbe0b5f543db7370aU,
  0x3da7e02f3dfbd836U, 0xbddce2c63dc6c25cU, 0x3e529b38be91415eU, 0xbe2e34f6bc2064b8U,
  0x3def9f553bea6d11U, 0xbe5906b13dbf5ec7U, 0x3e2f64b9be4762beU, 0xbbd41b773e902639U,
  0x3e24dd843e4fa305U, 0xbdb2465c3d821252U, 0x3e4cae83bd55a871U, 0xbe5b1ab13da7adc5U,
  0x3e3243b43d17f517U, 0x3e06f3023e8cce93U, 0x3d8523bcbe90eb9dU, 0xbcf1787f3e68302aU,
  0x3e1bc2343dd93016U, 0xbd7853db3e016eb7U, 0x3e449a51be8428daU, 0xbe8014c83e4089a5U,
  0x3e1ab0d93e529742U, 0x3d0633b33e6ca8cbU, 0x3a9a2cdcbe26e808U, 0xbe459f163d3ba0efU,
  0xbd4b7c8b3dd693deU, 0xbe3fd6fc3e8dabc3U, 0xbdd04174be83aa40U, 0xbdc9c4b9bddbefdaU,
  0xbd8f3e3c3df0ccc7U, 0xbdb28e9e3e77fd02U, 0x3d906c283e20a07bU, 0x3dc6d1fb3b66f7c8U,
  0x3d81893c3d580a1cU, 0x3c8e0e86bd404436U, 0x3d0a90593d23ee1dU, 0xbdfdf896bdffb6d1U,
  0x3e255351bc32a998U, 0xbd8817df3da7aaecU, 0x3bf09beebd24dd38U, 0xbe24f364bdbf70d5U,
  0x3dc555223da792a4U, 0xbceb0804bcf69aecU, 0x3ddbc5a7bd99e41bU, 0x3d955091be881528U,
  0xbc327384be018be7U, 0xbe388f42bdf1ca84U, 0xbccdf4ed3dfdfc70U, 0xbe14f5c1be5c2fe1U,
  0xbdcb00f1bd6fff19U, 0xbdc1757fbb30043cU, 0xbc6721283d2cd02eU, 0xbe06a9a2bd10cc46U,
  0xbdcde490bd46052eU, 0xbd8a50d23e4491f3U, 0xbd3d5ab7be668c9bU, 0xbe093d93bd870403U,
  0xbd1b7525bdd6612bU, 0xbbe5f9e3bd6507f0U, 0xbdb20211bd7b88ffU, 0xbaa6d0723e924168U,
  0xbd691034bdc5f739U, 0x3c7bfbb73d826924U, 0x3d617b61bc355a2aU, 0xbc93da223d4c563bU,
  0x3db729a2be6c63a2U, 0xbded2b86bd9a78c9U, 0xbd8766bd3e11307eU, 0xbe23900bbd9e6afdU,
  0x3d3b93cc3e309569U, 0x3d7605c5be192fd4U, 0xbe4429343c88a8e9U, 0xbd835fd4bd1d3a34U,
  0x3d2e1ed6be5c4048U, 0xbdf2696cbd1d0133U, 0xbcadb2893db4b1beU, 0xbcc58ec23d4c619cU,
  0xbdd59918bcf50b81U, 0xbd53f155be88c72aU, 0x3d256caf3e06a529U, 0xbd1c83933db73ad3U,
  0x3d62eed9baf423e8U, 0xbd0b55a63d4945faU, 0xbe236747bc372e32U, 0x3d72615cbe15e260U,
  0xbe0534ca3db768f8U, 0xbe273ed93c69d71bU, 0xbcb63f533d4ced1bU, 0x3b4c28d2bdab2f79U,
  0x3d9de7a83cb9fd1eU, 0xbda190173e3c72d0U, 0x3e134162bdd5259dU, 0xbe1c0c8d3e192601U,
  0xbd9905043d8a7137U, 0x3d806d2c3c3fd2e2U, 0x3e084b31be5678f5U, 0xbe4e934a3e93fce6U,
  0xbcbca1e0be46c83aU, 0xbd3ba0773e14b47fU, 0xbe05c6f93d95a80dU, 0xbd158aad3e89664cU,
  0xbca1befc3e08e55bU, 0x3dbbc934bdbe8f4eU, 0x3d897394bde2c79dU, 0x3de106d03d9b279dU,
  0xbcebebdcbe0f9f9dU, 0xbdb97a7dbe0705b8U, 0xbd9857da3d9f53cfU, 0x3dadca963e6a1f6aU,
  0x3d8fee2d3da257f4U, 0x3d6f29673dba21f4U, 0x3e7c51b13d399f17U, 0xbd9f33433d510167U,
  0xbda6e2a8be4c877bU, 0x3d82aa7ebc255a8bU, 0xbd49e1333c914913U, 0x3ceb6576bdbfc20cU,
  0x3d799163bdc57095U, 0x3dc9ed333df589e3U, 0x3ea8c2283aae39b2U, 0x3d29abdc3eca8cabU,
  0x3dc9a3de3ea04ae5U, 0x3cef02103df8759eU, 0x3e8ce1993e1ae7c8U, 0x3d2a1e683ec40c79U,
  0x3e0ed7853e547398U, 0x3e0573f03de1f077U, 0x3dca2e9cbcb7c0adU, 0x3c62092b3ea4cf3dU,
  0xbcbc1f4f3e3c7b2dU, 0x3d2aa9aebd49a4f3U, 0x3e127460bdacc089U, 0x3e1a00223eaee47eU,
  0xbd7e59fe3e0169a3U, 0x3d665bdb3e286921U, 0xbd832a54bd5301bbU, 0x3d5d3aa03dbc1367U,
  0xbddbb1223e494aedU, 0x3cc8ed563e8a1a7fU, 0x3e4ae20a3e0b9437U, 0xbcbdd7933e741311U,
  0xbd1062833cbf81daU, 0x3cf1fbd33d90f468U, 0x3c8db5c43e10b848U, 0x3e233ba73db2588bU,
  0xbd3b10e33e317d4cU, 0xbde7d48d3e8ec6ecU, 0xbe1ad7323dbb07d0U, 0x3dadb8923c9c35cfU,
  0x3e665d063e90b829U, 0xbd9364cb3e353f60U, 0x3da9edf73d755ec6U, 0xbd00b3f03e81d284U,
  0x3e377fd63eedee24U, 0x3e0f6cb13e81110aU, 0x3e0fa3013cf6ae62U, 0xbd438da43d7661b9U,
  0x3df8e3d03e4fecb4U, 0x3d90e3f13efa8caeU, 0x3e59380fbd4e7dc4U, 0xbcf7d4c13e6aae48U,
  0x3e36f3363e94d60fU, 0xbc8dc6943e9a24b8U, 0x3dfa3d633d1485d2U, 0x3dbaf2293eb9fcafU,
  0x3e60fd34bcd5b865U, 0x3e88e8b73e00440eU, 0x3d551ed53d5c35e7U, 0x3c05b31c3ec325f7U,
  0xbd7972f43a48d54eU, 0x3e2476a03e94c643U, 0x3ec9cba83e042da3U, 0x3d7425cf3e83794cU,
  0x3dd107543cf23397U, 0x3d97a9ee3ea77fcdU, 0x3d84b8c63df49799U, 0x3d676c6d3ed2752cU,
  0x3e87443b3e4e4e4aU, 0x3e00df823e5bc209U, 0xbd91631bba1d7859U, 0x3e3c55273e6eef18U,
  0x3dba1f253e4a653fU, 0xbd99edd63e171cd5U, 0x3e1f68c33d0d52e2U, 0xbcab96ec3e565164U,
  0xbdc530663e0568f1U, 0x3b9389173d60237bU, 0x3e21baf73e2273d4U, 0x3d7bd26d3e594847U,
  0x3db122cc3e551915U, 0xbdffb2d43e41cbf3U, 0x3d0162d23d79e4deU, 0x3cd6c69a3cf2c1e4U,
  0x3d082ed13dbed189U, 0xbde6ceef3eb8ee63U, 0xbd9628b6bd61cc09U, 0x3d9a78993e4db1c3U,
  0xbcfd26703ed2fa31U, 0x3cef9e5a3ec781e3U, 0xbd40f2ddbcf01cb5U, 0x3df4a4873ddbe125U,
  0x3dbdab003f1e0c04U, 0x3e448e053e89846bU, 0x3e9e6a6eb9f639e6U, 0xbc3515003e86deb6U,
  0x3e2ff5c63f06405eU, 0x3e90ef423ebed794U, 0x3e99c01bbc7d31fdU, 0xbd95e67a3edeafbfU,
  0x3e20099d3efcf877U, 0x3da6d4323ebbf6bdU, 0x3eb1e1033e27dea2U, 0xbcc8a0a33f0d43a5U,
  0x3dee48b33e86410fU, 0xbd0d97723e4ceb5fU, 0x3e1980173d7d9673U, 0xbd548d943e93a629U,
  0x3e30d5573ea49effU, 0x39c7bd783e84c521U, 0x3d6bf7b93d41a6a9U, 0x3ccfe2e93ef0e895U,
  0xbdc979ad3e0d23ccU, 0x3e2e37793eba3d8eU, 0x3e56d7723db9c695U, 0x3d2094d23e7ae63eU,
  0x3de42d3e3e4f081bU, 0xbd93487a3dd6c13dU, 0x3d9be7943c54ddb3U, 0x3e3900a23eae462aU,
  0x3d8c69093eaebc3dU, 0xbcfcfb043e7dccfdU, 0x3ecb74a83dd99955U, 0xbcc858a73ea1f370U,
  0xbe113c203e5fa212U, 0x3c9fd9ae3ec03325U, 0xbddf0e913cadc8bfU, 0x3e0c7e623ec3d886U,
  0xbd99648e3ef405aeU, 0xbcdb4ad73ea86982U, 0x3e1e8ba6bd00ba4eU, 0x3d6101ca3e51ee53U,
  0x3e596a533f012b21U, 0x3e96895c3ee251f3U, 0x3e2c94083da6c7a2U, 0x3d9b8d943e849da7U,
  0xb9e786733f02893eU, 0x3cca263d3ee1ec94U, 0x3e88bcd9bc9e4898U, 0x3de9395d3eea39d6U,
  0x3e92859d3e77ca23U, 0x3ddb13c43e4207b9U, 0x3e8debcebdd2ff8eU, 0xbcf088af3ece11e6U,
  0xbc418c273d9ccc78U, 0x3d52506f3d97cfaaU, 0x3e93aa883d9c802bU, 0x3e0aa0933ee062c2U,
  0xbde1a0803dcaecf2U, 0x3e5fe4053e16e84cU, 0x3ee83088bcdabc90U, 0xbd90f9953ee7e352U,
  0x3e074cac3e5afbe8U, 0x3d12e82d3eb2921dU, 0x3ea3da75bdfccdf2U, 0x3e0c8fac3edbae19U,
  0x3de294a13e2a2e06U, 0xbc8051083e4cab92U, 0x3e88b4fcbc685481U, 0xbd0be6af3ee973d1U,
  0x3cd58ce13ef37fa2U, 0x3cf881f73df60166U, 0x3e795f713d253b1cU, 0x3e3421043e7fdb05U,
  0x3d8a19ab3e6fe392U, 0x3dea2b5f3e12cedbU, 0x3d9257fd3e4ef6e7U, 0xbd1354903e9b5461U,
  0x3d1643f13e729fd1U, 0x3e299c123e4c8761U, 0x3d6f6abe3d531a75U, 0x3dd104bc3ec50bd3U,
  0x3d6b2caf3eb9fe14U, 0xbd92a8aa3f02558bU, 0x3dd26b0b3da17dc3U, 0xbd1532163ea45215U,
  0x3a9a2e643ea1dc2aU, 0xbd9cc72d3effc007U, 0xbddced623ddfafddU, 0xbdcbf58a3e81bb84U,
  0x3e3c6c383f32ecdfU, 0x3dfd44423e8aa3e1U, 0x3e833d543d1129b1U, 0x3de6333d3ecdd85dU,
  0x3d3eb9873f524d46U, 0xbe54eb8b3f36dcaeU, 0xbed93a8e3dccb9b0U, 0x3c0cffe1bf1c2cb5U,
  0xbdce11fbbec8e1d7U, 0xbd8f4d28beb0b883U, 0xbea78e383dd37c46U, 0x3d998950bebf6509U,
  0xbe8abb8abd5ee3b0U, 0x3d5fde0ebb7e7d51U, 0xbee08179bd038625U, 0x3c847bf1bed2707fU,
  0xbe41aee8be0a7794U, 0x3d1ca61dbe340509U, 0x3cf853903d206a54U, 0xbc70612cbeb12d43U,
  0xbce0eacabe884337U, 0x3db14880bdf8be34U, 0xbd896f7f3e223fd9U, 0xbdbffb68bdb51427U,
  0x3d85a86f3d1eb3daU, 0x3de53397be278153U, 0xbe765b383dac5ee1U, 0x3de5f679beaa89deU,
  0xbe0e3ed1bcdc6edcU, 0xbc4785bdbdf9c63bU, 0xbe278b313d9484d8U, 0xbdfc8f5cbe8e4ff2U,
  0xbe4304cdbde147d3U, 0xbd3ca8ccbe11af01U, 0xbda8e94f3aaab018U, 0xbe0c3e39be36bcb6U,
  0xbdece57abe4e3663U, 0xbcf9bdadbe0cf5a8U, 0xbe88d6f6bdeeac44U, 0xbd0b8c713d9caa58U,
  0xbe62f1fdbf1de0f0U, 0xbe1c7016bec2c032U, 0xbdc0c8233dfed99fU, 0x3d7263acbe4e5658U,
  0xbe385c95bec2bb1aU, 0xbe038171bf0ac0adU, 0xbee790f43e2cffcaU, 0xbde75454bd2b017aU,
  0xbeb2aab1bd00ec4cU, 0xbb8f3d57be70899fU, 0xbe73d2df3de065c4U, 0x3dbec1dcbe9851e9U,
  0xbe1ebfc8be159e76U, 0x3d1a8775bef38ef0U, 0xbe9d9f0bbcea603fU, 0x3e05b341beaa8f31U,
  0xbd173275bed51460U, 0x3d5d82f6be90d975U, 0xbe48a6b1bdee5f18U, 0x3e22ab3abe74242cU,
  0xbe811d64bec07022U, 0xbd768884bef1fe79U, 0xbe9cc5febda5c86cU, 0xbddc078abe8a61a9U,
  0xbe029d93be3b7193U, 0x3dd29b15be983e5dU, 0xbea34ca83dc70e68U, 0x3d0cdbd9bef64f73U,
  0xbdfde0d3bea546ecU, 0x3d397a74bdff8488U, 0xbcf2f9043e1333edU, 0x3c252c6dbe90584fU,
  0x3d6a7f98be95888eU, 0xbd5ca2ecbe86b765U, 0x3d8d4c8c3d635408U, 0xbd7bba53be0475fcU,
  0x3db98872be81cf24U, 0x3e326a5ebe6847caU, 0xbe74e2273e544f91U, 0xbcbc6c1ebea85cd1U,
  0xbda55317be865c2dU, 0x3cb2a08dbe90c9a1U, 0xbe11af523db09c45U, 0xbd85f1ecbda3eaf1U,
  0xbd820291be87d884U, 0xbbd6bc0cbf070d58U, 0x3dc92180bdeed6a5U, 0x3cacd877be13dd3aU,
  0x3d33e9d2be814f3cU, 0x3bb5fe7dbe857ee8U, 0x3e5a6b0d3e07c215U, 0x3d3185e5bd28c46fU,
  0xbcd326d3befbae01U, 0xbdff346abef62c72U, 0x3eb47f58be14ec7fU, 0xbdb1b6613ea7b667U,
  0x3e7f1acf3dfc22a9U, 0xbdac7bd83e6dddfaU, 0x3cea3815be8e4833U, 0xbe7504933e64c889U,
  0x3bfd65373ded4fc6U, 0xbd0effcebd14b10fU, 0x3dc1c124be0d65adU, 0xbe8c854c3e6fba16U,
  0x3c716de63e138891U, 0xbc382fc03b2e1be8U, 0x3dd7e2c0be0901a6U, 0xbd95cb213de8a190U,
  0x3e1e49613de55740U, 0xbda4d66e3dde4147U, 0x3e03c037bd67d82dU, 0xbe85ad073e088311U,
  0x3e1c96713e03d0fbU, 0xbded134b3c71d967U, 0x3e9a291ebeaccd26U, 0xbd8f3eb53d26d667U,
  0x3dd098c23e450e8eU, 0xbaffe2423e9772c3U, 0x3dd81266be714d99U, 0xbd814e893de96042U,
  0x3c8c7f5e3d0e16aeU, 0xbde3e0423e74a7acU, 0x3c81d956bdfc3a2cU, 0xbe0b9504bc85b673U,
  0x3e2d58ec3e4423baU, 0x3b9454f53e5b7fcaU, 0x3e3ebaabbe5cea9aU, 0xbe72375abbbdf30cU,
  0x3dfa45193df191b0U, 0xbd1eb9293d5e1f3fU, 0x3dcf717abe3046a1U, 0xbe42f0ef3e2a7238U,
  0x3da93fea3ce38844U, 0xbe3a43d53cf23349U, 0x3d9da582bdf07573U, 0xbb7d0ab53d4c656bU,
  0xbcc18e373dc03771U, 0xbe71b5743db0364dU, 0x3d5ff786bdf36baaU, 0xbe06ee223e4ae5d7U,
  0x3d3b852d3da998c8U, 0x3e1a7fb93de89156U, 0x3e46aed5bdc8c0b9U, 0xbe60a5043e342ebcU,
  0x3d101550bd7c610aU, 0xbdbee2a23e9152a7U, 0x3e0b2fd2be28db15U, 0xbe0bc1fa3d7a33a3U,
  0x3dc6a8ef3ddc1ad7U, 0xbd3784bb3e7f2bdeU, 0x3e60767fbe6edc8bU, 0xbe82f0cf3e3f1741U,
  0xbc99af823e9ec7a7U, 0xbe81f36c3e2a5c66U, 0x3ddee55ebe0ecee4U, 0xbdb134933b8e41f0U,
  0x3e0ade913c490cdaU, 0xbe38febb3e2990d9U, 0x3dbb7537bc94db83U, 0xbe2c94643dce5721U,
  0xbcc0e0d33e732c3dU, 0xbe26de2c3ce6db3fU, 0x3db1debfbe8a2ee7U, 0xbe904bee3e8a9a32U,
  0x3d7e1e6e3d0cec39U, 0x3d67fbe6bcc633caU, 0xbc95eebcbd5c2df3U, 0xbe903dde3d87f65cU,
  0x3e5446363b878825U, 0x3da8154f3dba8bdaU, 0x3d80e7d9be984c8dU, 0xbe236e3a3dd90a93U,
  0xbc9f8a603e3ca2f7U, 0xbd2077373e724f5fU, 0x3c7565d4be2ed461U, 0xbe8957a5bcf208abU,
  0x3e2b6a5e3df6a096U, 0xbe14d4c33e500ed1U, 0x3d585098be27d5b3U, 0xbe68d6783e0d02d5U,
  0x3e5f0b083e5c7f7eU, 0xbd9785b43ead5139U, 0x3e263699be290855U, 0xbe41806d3e4db02fU,
  0x3d6378273ce06132U, 0x3d823096bc0f5ffeU, 0xbdf91aeabe8a9d0fU, 0x3d230a3a3cfe4a24U,
  0x3e48e1073df37e30U, 0xbddae7403c42872eU, 0x3df77ec5be06d621U, 0x3c0a93333e6ceae7U,
  0x3e16210d3dd7548dU, 0xbd1fbb993d8ddf12U, 0x3c2af99fbda573a1U, 0xbe1742c23c576928U,
  0x3daeedf53dee5b2bU, 0xbdfcc813bdc164c2U, 0x3cef8e6ebe731f91U, 0xbc1ae37f3e43a800U,
  0xbb9fd0ea3df7cb7eU, 0xbdd3979f3df1a688U, 0x3d89e576be1d2760U, 0xbdd84c09bdc6fd5cU,
  0x3e2cfd013d4a5d9aU, 0x3da16b943e0d42a5U, 0x3e3a87d93c922f72U, 0xbe2474a93e445f89U,
  0xbd9cebe63d352b31U, 0x3d6feeb33ddf981fU, 0x3e3bfcd2bc981803U, 0xbe884f313c6001d9U,
  0x3e015fdb3c6fa4b3U, 0xbe4e74763c11571eU, 0x3e64cf993b758fe9U, 0xbe26b2ac3dde1c8aU,
  0x3d161ba73e20d201U, 0xbe1ac17e3e4c94bbU, 0x3e00be95bd0d595cU, 0x3d1f08fd3e29b35cU,
  0xbbbe3e973d9fefd1U, 0x3cf231103df69071U, 0x3e0b412cbd437673U, 0x3d3604713d81f867U,
  0x3ddbe2f63e321efaU, 0xbe57c95a3e0ee8aaU, 0x3e4f9444bd9d2e88U, 0xbd758cf03e1f821bU,
  0xbdbe4b20ba2700aeU, 0xbe0072c6be0fd1cbU, 0x3cadecffbcbb4e54U, 0x3d7e2a2e3e56b782U,
  0xbd52477d3d50f34bU, 0x3debae81bd636edfU, 0xbd26344e3d36cb0bU, 0x3c48402b3d83c915U,
  0x3db82b723e6fd08fU, 0xbe3b5ac33e527f59U, 0xbdb1f7c0be087bc1U, 0xbd5fe823bc4580ffU,
  0xbdd27cba3d845dc8U, 0x3db9ebaf3e849267U, 0x3e5d535cbe61d6dcU, 0xbd9d078e3d8201b8U,
  0x3dc14841bd8e1bfdU, 0x3da7f5b83e2827fdU, 0x3e5539d9bc8a1336U, 0xbc921d873df07c7fU,
  0xbdf2b89e3ce3c1e9U, 0xbe6567513e5b2231U, 0x3e2b2d9dbe375425U, 0x3c117aadbae9d458U,
  0xbb7ededd3e41e2e5U, 0xbd5029073e48c893U, 0x3e267259be00bcb0U, 0xbe48c8a33d802f38U,
  0xbca096913e017931U, 0x3cc8eef43e035727U, 0x38f8a971be5a589aU, 0xbe26ca963ddf4396U,
  0x3ca7c6fb3e154d47U, 0x3d9e8bb73e0536c5U, 0xbdee744cbd9108d6U, 0x3d25bd49bd6037d3U,
  0x3de57ecc3df88191U, 0xbe0ed7333d55b376U, 0xbdff8fd6be87cac9U, 0xbdddee413dbda4f9U,
  0x3df291493e8c7b39U, 0x3bfe21a23d9105d5U, 0xbd6222e9be034f24U, 0x3db118d3be2680d0U,
  0xbdf6d9a1be685161U, 0xbe2a67993d42e36cU, 0xbe3d5042bd826bc0U, 0x3e1eac673d30677eU,
  0xbcd2157ebd82fdc0U, 0xbcdb3896be469fefU, 0xbcbba61d3d794897U, 0xbd6d809fbced20a8U,
  0x38aea39b3dc5f169U, 0xbca33358bd8d459eU, 0xbd33963a3c14d733U, 0x3dc7ceb43d32fd69U,
  0xbcd0f7fa3e0ff297U, 0x3d925af5bd85d269U, 0xbc4d86c9bd1e6cf8U, 0x3e1360cf3d8fc8cdU,
  0x3d853e11b9e87c02U, 0x3d9fc9f7be0b7cacU, 0x3da37f313c926790U, 0xbb010f1bbe0e8db9U,
  0xbd514e603d1b8ad8U, 0x3e122a29bde2a208U, 0x3d05b0243c96dc37U, 0x3cb7256b3aceacb6U,
  0xbd7e6954be2b4ad9U, 0xbe0c0ba5be06121cU, 0x3ca162e0bd54793cU, 0xbe10f56fbdf813adU,
  0x3d7e6ce3bd417458U, 0x3c92a67bbd84cc7aU, 0x3bc540ffbde128cdU, 0xbe4fd456bdab83a3U,
  0xbe3e604bbdc962e3U, 0x3de472afbe694d30U, 0x3dcd5b00bca2fec4U, 0xbd49d5bbbdd1f717U,
  0x3d04b225be5db17fU, 0xbdf07425bdd1405cU, 0x3d9cb9033ddeab79U, 0x3d01105bbd6cbfa8U,
  0x3b371639bde0a138U, 0xbd5284613c746fa2U, 0x3d005f5bbd410abcU, 0x3dd350173d68ce3dU,
  0xbd4c33c8be20b04eU, 0x3c1a0ad9be0e2f47U, 0xbbd22415be38fb1fU, 0xbd525b8b3ddb0c4cU,
  0x3d072996be0c5cceU, 0x3cecb9c8bdfaac4eU, 0x3db497e53d211a3aU, 0x3e040f8cbac03148U,
  0x3d57c413bde2b579U, 0xbe448544bbde8085U, 0x3ca0cf21be24e6a6U, 0xbd8c8551be0544a5U,
  0xbddd862bbe1ee759U, 0x3d92a84bbe0e5acfU, 0x3d918fc0bd1ef838U, 0x3ddb23b5bc104e89U,
  0xbde5494fbda2688eU, 0x3d693da13bb14fc1U, 0xbda2aae6bcb7848eU, 0xbe1b34613e34f34bU,
  0xbdd67173bdbf19f7U, 0x3da622e93dc8d2afU, 0xbe201123bcc671bbU, 0xbdd40dd1bdfd22e8U,
  0xbe03c650bc990909U, 0xbe13dfedbd4160fcU, 0xbdb942d73b3119b6U, 0x3d3dc138be183066U,
  0x3ce905243d8452c6U, 0xbd95a8ab3d183c7eU, 0xbce42824bdba688dU, 0xbdb1ee94bdebe4d9U,
  0xbe1735c0be357f12U, 0xbc6f3009bdefdbfcU, 0x3d7eee003bf89cbbU, 0xbc8be6a93b90e32dU,
  0xbe2296fdbe512a2cU, 0x3e2e49f1be39b52eU, 0xbe284f9e3dfa7728U, 0xbdb560a5bd627259U,
  0xbe33a5d9bcd846c5U, 0xbd467f51bd5c4078U, 0xbdafbc0a3e91898aU, 0x3ddb91fcbe812f7bU,
  0xbdc0b50a3cde37e4U, 0x3d345c71bdad41bfU, 0x3d7fc07c3dad8276U, 0x3e091bdabe007cccU,
  0x3d5216ffbda1e652U, 0xbb98f73d38a732b8U, 0xbdf19f2a3d13c5f4U, 0x3e4c15763c5b90d8U,
  0xbd69a8c0ba476dd4U, 0xbd83a6b33d840582U, 0x3dd421433e600fc5U, 0x3d85924dbe232770U,
  0x3e445e78bd160401U, 0x3ddfd5a63dda00f3U, 0x3e5a27d53e835453U, 0x3e8630a2bd81d2e8U,
  0x3e4a40cf3e02adf8U, 0x3e1b35d0bdaba587U, 0xbc03a7f83e7c32eaU, 0x3de19ed8bdfa97b4U,
  0xb9c9e8cd3e0666a0U, 0xbcba8c27bda08c07U, 0xbc5df6403e49fad4U, 0x3e46592fbcaba84fU,
  0x3ddc49953afee0d0U, 0x3e37d7f7be15b36dU, 0x3d033faa3e722b64U, 0x3e1d524fbce07fbdU,
  0x3d72e630bd61600aU, 0x3e1364563ddc5a57U, 0x3d3be3423e1233ccU, 0x3e2ab7833df330c2U,
  0x3dae2188be9033f6U, 0x3e2b95bcbe3bcba0U, 0x3db53bc83dbcace6U, 0x3d8d2a153dfa1cf1U,
  0xbcb28001bd79fb0fU, 0x3e058e5fbdc87d3eU, 0xbc8183e5bc419eedU, 0x3e6e01ecbc8dfe46U,
  0x3cd16224bdc7f4f2U, 0x3e20a6e4bd07c7b9U, 0x3e2451dfbcb807aaU, 0xbcf270da3c61e87bU,
  0x3e30b8e83cd1943bU, 0xbdd30bbf3e816a2bU, 0xbd8410843e440983U, 0x3e4d6062be1f42aaU,
  0x3dcf2b053e1432d2U, 0xbd82be1b3da294fcU, 0xbdf45f1c3e804bfdU, 0x3d79113ebe05e17dU,
  0xbd97605fbc85fc50U, 0xbd8b5722be586fdbU, 0xbde1b5fa3e50e34eU, 0xbbb45d653db1a097U,
  0xbd75bec6bda3e0c1U, 0xbd0ec0abbdf37f75U, 0x3e2409f03e44c0f5U, 0x3d5ebc513d99c81fU,
  0x3e45b79ebddb33d6U, 0x3e0277e63d73c121U, 0xbdd0be463e830d4cU, 0xbbe726bfbe567098U,
  0x3e591592baa54f70U, 0x3e27db35bd92f49eU, 0xbc4b024b3b911e1eU, 0x3e67fb87bd577812U,
  0xbc9a10643d21fbcdU, 0x3d7a1c82bc2fe068U, 0x3e28b06f3e4bba16U, 0x3d9f458f3deacc11U,
  0x3e532089bdea8844U, 0x3cfa95623c2319dcU, 0x3d5f85113dba1d45U, 0x3dbe1e253e06aa94U,
  0x3d8de27bbd6f7bc5U, 0x3e81a0c0bd565a5eU, 0x3d7231723e46b16fU, 0x3e99940cbe0fdf2fU,
  0x3b7e1ddabd9acceaU, 0x3e79185fbd5c2120U, 0xbe8a55733e80fcc3U, 0x3de1cfe2bdc3402fU,
  0xbd4eeb19be91addbU, 0xbb506775bea1fa6fU, 0x3e2d2280be5de13eU, 0xbb18bacb3db3d031U,
  0x3e8d4eb73e03bb17U, 0xbe35d3703e2f7421U, 0x3e49981ebe0a886fU, 0xbd87a9393d432a26U,
